{"Ā": 0, "ā": 1, "Ă": 2, "ă": 3, "Ą": 4, "ą": 5, "Ć": 6, "ć": 7, "Ĉ": 8, "ĉ": 9, "Ċ": 10, "ċ": 11, "Č": 12, "č": 13, "Ď": 14, "ď": 15, "Đ": 16, "đ": 17, "Ē": 18, "ē": 19, "Ĕ": 20, "ĕ": 21, "Ė": 22, "ė": 23, "Ę": 24, "ę": 25, "Ě": 26, "ě": 27, "Ĝ": 28, "ĝ": 29, "Ğ": 30, "ğ": 31, "Ġ": 32, "!": 33, "\"": 34, "#": 35, "$": 36, "%": 37, "&": 38, "'": 39, "(": 40, ")": 41, "*": 42, "+": 43, ",": 44, "-": 45, ".": 46, "/": 47, "0": 48, "1": 49, "2": 50, "3": 51, "4": 52, "5": 53, "6": 54, "7": 55, "8": 56, "9": 57, ":": 58, ";": 59, "<": 60, "=": 61, ">": 62, "?": 63, "@": 64, "A": 65, "B": 66, "C": 67, "D": 68, "E": 69, "F": 70, "G": 71, "H": 72, "I": 73, "J": 74, "K": 75, "L": 76, "M": 77, "N": 78, "O": 79, "P": 80, "Q": 81, "R": 82, "S": 83, "T": 84, "U": 85, "V": 86, "W": 87, "X": 88, "Y": 89, "Z": 90, "[": 91, "\\": 92, "]": 93, "^": 94, "_": 95, "`": 96, "a": 97, "b": 98, "c": 99, "d": 100, "e": 101, "f": 102, "g": 103, "h": 104, "i": 105, "j": 106, "k": 107, "l": 108, "m": 109, "n": 110, "o": 111, "p": 112, "q": 113, "r": 114, "s": 115, "t": 116, "u": 117, "v": 118, "w": 119, "x": 120, "y": 121, "z": 122, "{": 123, "|": 124, "}": 125, "~": 126, "ġ": 127, "Ģ": 128, "ģ": 129, "Ĥ": 130, "ĥ": 131, "Ħ": 132, "ħ": 133, "Ĩ": 134, "ĩ": 135, "Ī": 136, "ī": 137, "Ĭ": 138, "ĭ": 139, "Į": 140, "į": 141, "İ": 142, "ı": 143, "Ĳ": 144, "ĳ": 145, "Ĵ": 146, "ĵ": 147, "Ķ": 148, "ķ": 149, "ĸ": 150, "Ĺ": 151, "ĺ": 152, "Ļ": 153, "ļ": 154, "Ľ": 155, "ľ": 156, "Ŀ": 157, "ŀ": 158, "Ł": 159, "ł": 160, "¡": 161, "¢": 162, "£": 163, "¤": 164, "¥": 165, "¦": 166, "§": 167, "¨": 168, "©": 169, "ª": 170, "«": 171, "¬": 172, "Ń": 173, "®": 174, "¯": 175, "°": 176, "±": 177, "²": 178, "³": 179, "´": 180, "µ": 181, "¶": 182, "·": 183, "¸": 184, "¹": 185, "º": 186, "»": 187, "¼": 188, "½": 189, "¾": 190, "¿": 191, "À": 192, "Á": 193, "Â": 194, "Ã": 195, "Ä": 196, "Å": 197, "Æ": 198, "Ç": 199, "È": 200, "É": 201, "Ê": 202, "Ë": 203, "Ì": 204, "Í": 205, "Î": 206, "Ï": 207, "Ð": 208, "Ñ": 209, "Ò": 210, "Ó": 211, "Ô": 212, "Õ": 213, "Ö": 214, "×": 215, "Ø": 216, "Ù": 217, "Ú": 218, "Û": 219, "Ü": 220, "Ý": 221, "Þ": 222, "ß": 223, "à": 224, "á": 225, "â": 226, "ã": 227, "ä": 228, "å": 229, "æ": 230, "ç": 231, "è": 232, "é": 233, "ê": 234, "ë": 235, "ì": 236, "í": 237, "î": 238, "ï": 239, "ð": 240, "ñ": 241, "ò": 242, "ó": 243, "ô": 244, "õ": 245, "ö": 246, "÷": 247, "ø": 248, "ù": 249, "ú": 250, "û": 251, "ü": 252, "ý": 253, "þ": 254, "ÿ": 255, "<|endoftext|>": 256, "Ġt": 257, "he": 258, "Ġa": 259, "Ġs": 260, "Ġw": 261, "nd": 262, "ed": 263, "Ġf": 264, "Ġh": 265, "it": 266, "Ġthe": 267, "er": 268, "as": 269, "in": 270, "Ġto": 271, "Ġd": 272, "is": 273, "Ġb": 274, "ie": 275, "re": 276, "ll": 277, "ou": 278, "ay": 279, "Ġand": 280, "Ġwas": 281, "Ġn": 282, "Ġl": 283, "ĠT": 284, "Ġp": 285, "Ġo": 286, "me": 287, "Ġth": 288, "Ġc": 289, "at": 290, "ĠB": 291, "uc": 292, "en": 293, "rie": 294, "riend": 295, "ow": 296, "ne": 297, "Ġfriend": 298, "ing": 299, "ĠThe": 300, "Ġhe": 301, "ig": 302, "an": 303, "Ġv": 304, "lay": 305, "ith": 306, "ir": 307, "id": 308, "Ġwith": 309, "Ġsh": 310, "Ġsa": 311, "ucy": 312, "ot": 313, "ly": 314, "im": 315, "Lucy": 316, "Ġplay": 317, "Ġhis": 318, "Ġha": 319, "ĠLucy": 320, "ome": 321, "ge": 322, "am": 323, "He": 324, "Ġsp": 325, "Ġm": 326, "Ġit": 327, "Ġe": 328, "ĠO": 329, "irit": 330, "Ġday": 331, "to": 332, "or": 333, "ob": 334, "ma": 335, "llie": 336, "ke": 337, "ic": 338, "ery": 339, "Ġspirit": 340, "Ġnot": 341, "Ġher": 342, "Ġbe": 343, "ĠBob": 344, "Ġu": 345, "ĠHe": 346, "Ġ\"": 347, "ved": 348, "maz": 349, "ase": 350, "all": 351, "Ġvase": 352, "Ġup": 353, "Ġthat": 354, "Ġsaid": 355, "Ġsto": 356, "Ġlo": 357, "Ġfriends": 358, "Ġbig": 359, "Ġamaz": 360, "ĠThey": 361, "ĠOllie": 362, "ĠBen": 363, "ut": 364, "ran": 365, "range": 366, "on": 367, "om": 368, "ok": 369, "le": 370, "ld": 371, "ish": 372, "ily": 373, "Ġvery": 374, "Ġshow": 375, "Ġorange": 376, "Ġhome": 377, "Ġfor": 378, "Ġfish": 379, "Ġin": 380, "Ġg": 381, "ve": 382, "ur": 383, "um": 384, "umb": 385, "the": 386, "ther": 387, "pp": 388, "ound": 389, "ner": 390, "inner": 391, "iger": 392, "ick": 393, "ere": 394, "amily": 395, "al": 396, "Ġwere": 397, "Ġthumb": 398, "Ġtiger": 399, "Ġpick": 400, "Ġmom": 401, "Ġli": 402, "Ġfamily": 403, "Ġdo": 404, "Ġdinner": 405, "Ġamazing": 406, "Ġan": 407, "ĠTim": 408, "Ġre": 409, "ĠI": 410, "âĢ": 411, "uck": 412, "tle": 413, "ore": 414, "nc": 415, "nce": 416, "mi": 417, "ittle": 418, "iny": 419, "ime": 420, "hen": 421, "ec": 422, "amed": 423, "ar": 424, "ake": 425, "Once": 426, "!\"": 427, "Ġupon": 428, "Ġthere": 429, "Ġtime": 430, "Ġstone": 431, "Ġshiny": 432, "Ġsaw": 433, "Ġsome": 434, "Ġso": 435, "Ġon": 436, "Ġof": 437, "Ġne": 438, "Ġnamed": 439, "Ġloved": 440, "Ġlittle": 441, "Ġhapp": 442, "Ġhad": 443, "Ġev": 444, "Ġcat": 445, "Ġall": 446, "Ġis": 447, "ĠW": 448, "you": 449, "ver": 450, "un": 451, "tt": 452, "ri": 453, "out": 454, "oug": 455, "ough": 456, "oy": 457, "mil": 458, "miled": 459, "lie": 460, "lieve": 461, "if": 462, "hing": 463, "gether": 464, "ent": 465, "alled": 466, "One": 467, "'s": 468, "Ġwent": 469, "Ġtold": 470, "Ġtogether": 471, "Ġtake": 472, "Ġstore": 473, "Ġsmiled": 474, "Ġplayed": 475, "Ġlook": 476, "Ġhow": 477, "Ġhim": 478, "Ġgo": 479, "Ġfriendly": 480, "Ġfun": 481, "Ġfound": 482, "Ġdog": 483, "Ġduck": 484, "Ġdid": 485, "Ġcatc": 486, "Ġcou": 487, "Ġcan": 488, "Ġcalled": 489, "Ġbelieve": 490, "Ġboy": 491, "Ġball": 492, "ĠOne": 493, "ĠIt": 494, "Ġyou": 495, "Ġme": 496, "ĠS": 497, "ĠA": 498, "âĢĿ": 499, "âĢľ": 500, "xp": 501, "utif": 502, "utifu": 503, "utiful": 504, "urr": 505, "urry": 506, "tter": 507, "thing": 508, "ted": 509, "ss": 510, "se": 511, "round": 512, "ower": 513, "owers": 514, "ought": 515, "ots": 516, "one": 517, "lowers": 518, "ird": 519, "ings": 520, "ice": 521, "ion": 522, "ial": 523, "his": 524, "hat": 525, "eryone": 526, "ecial": 527, "dd": 528, "ck": 529, "bout": 530, "ation": 531, "asy": 532, "autiful": 533, "ad": 534, "ack": 535, "You": 536, "His": 537, "Hi": 538, "?\"": 539, ".\"": 540, "Ġwe": 541, "Ġtook": 542, "Ġthey": 543, "Ġthought": 544, "Ġthings": 545, "Ġspecial": 546, "Ġsomething": 547, "Ġshowed": 548, "Ġsw": 549, "Ġreal": 550, "Ġpicked": 551, "Ġother": 552, "Ġnew": 553, "Ġnow": 554, "Ġnice": 555, "Ġlived": 556, "Ġlike": 557, "Ġlots": 558, "Ġhappy": 559, "Ġhave": 560, "Ġhurry": 561, "Ġflowers": 562, "Ġeveryone": 563, "Ġeven": 564, "Ġeasy": 565, "Ġcould": 566, "Ġcatch": 567, "Ġca": 568, "Ġbeautiful": 569, "Ġbut": 570, "Ġback": 571, "Ġamazed": 572, "Ġabout": 573, "ĠWhen": 574, "ĠShe": 575, "ĠBut": 576, "ĠâĢľ": 577, "Ġk": 578, "ĠYou": 579, "yw": 580, "ywhe": 581, "ywhere": 582, "xpl": 583, "xplore": 584, "xpec": 585, "xpected": 586, "xc": 587, "xcit": 588, "xcited": 589, "way": 590, "ways": 591, "ving": 592, "urp": 593, "urpr": 594, "urpris": 595, "urprised": 596, "urn": 597, "urned": 598, "uri": 599, "uriou": 600, "urious": 601, "uriously": 602, "ucky": 603, "uch": 604, "uy": 605, "ull": 606, "ully": 607, "ug": 608, "ugg": 609, "ugged": 610, "udd": 611, "udden": 612, "uddenly": 613, "tty": 614, "ter": 615, "tar": 616, "tarted": 617, "sid": 618, "side": 619, "river": 620, "rived": 621, "ried": 622, "retty": 623, "ress": 624, "ref": 625, "refully": 626, "reen": 627, "rec": 628, "reci": 629, "reciation": 630, "rse": 631, "rrived": 632, "rough": 633, "rou": 634, "roud": 635, "rom": 636, "ro": 637, "ross": 638, "ppreciation": 639, "pt": 640, "play": 641, "pke": 642, "pkee": 643, "pkeep": 644, "pkeeper": 645, "pirit": 646, "pirits": 647, "outside": 648, "ouse": 649, "orld": 650, "opkeeper": 651, "ook": 652, "ol": 653, "olor": 654, "odd": 655, "odded": 656, "nexpected": 657, "new": 658, "nder": 659, "now": 660, "nore": 661, "minder": 662, "mall": 663, "lways": 664, "lt": 665, "look": 666, "li": 667, "lia": 668, "liab": 669, "liable": 670, "kept": 671, "king": 672, "ked": 673, "isplay": 674, "irds": 675, "irl": 676, "ination": 677, "ima": 678, "imag": 679, "imagination": 680, "ignore": 681, "ided": 682, "iced": 683, "ill": 684, "ile": 685, "hile": 686, "get": 687, "got": 688, "fter": 689, "fore": 690, "ened": 691, "ecided": 692, "elt": 693, "een": 694, "ean": 695, "eaned": 696, "cross": 697, "car": 698, "cared": 699, "ater": 700, "ast": 701, "arried": 702, "ark": 703, "any": 704, "ally": 705, "alking": 706, "ade": 707, "Wow": 708, "While": 709, "Tim": 710, "This": 711, "Then": 712, "The": 713, "Spirits": 714, "So": 715, "Ollie": 716, "Of": 717, "From": 718, "Can": 719, "At": 720, "And": 721, "?âĢĿ": 722, "'t": 723, "!âĢĿ": 724, "Ġyour": 725, "Ġweird": 726, "Ġworld": 727, "Ġwhen": 728, "Ġwhat": 729, "Ġwalking": 730, "Ġvases": 731, "Ġunexpected": 732, "Ġtoo": 733, "Ġthen": 734, "Ġthem": 735, "Ġthrough": 736, "Ġthis": 737, "Ġturned": 738, "Ġswim": 739, "Ġswam": 740, "Ġshopkeeper": 741, "Ġshake": 742, "Ġsad": 743, "Ġsurprised": 744, "Ġsuddenly": 745, "Ġstarted": 746, "Ġsmall": 747, "Ġshe": 748, "Ġseen": 749, "Ġscared": 750, "Ġreminder": 751, "Ġreliable": 752, "Ġreally": 753, "Ġplaying": 754, "Ġproud": 755, "Ġpretty": 756, "Ġpark": 757, "Ġothers": 758, "Ġover": 759, "Ġotter": 760, "Ġone": 761, "Ġnoticed": 762, "Ġnever": 763, "Ġneed": 764, "Ġnodded": 765, "Ġmet": 766, "Ġmean": 767, "Ġmy": 768, "Ġmuch": 769, "Ġmore": 770, "Ġmany": 771, "Ġmade": 772, "Ġlooked": 773, "Ġliked": 774, "Ġlucky": 775, "Ġleaned": 776, "Ġlater": 777, "Ġknow": 778, "Ġknew": 779, "Ġinto": 780, "Ġhappily": 781, "Ġhappened": 782, "Ġhaving": 783, "Ġhugged": 784, "Ġhouse": 785, "Ġgoing": 786, "Ġground": 787, "Ġgreen": 788, "Ġgirl": 789, "Ġforgot": 790, "Ġfelt": 791, "Ġfast": 792, "Ġexplore": 793, "Ġexcited": 794, "Ġend": 795, "Ġeat": 796, "Ġdress": 797, "Ġdisplay": 798, "Ġdecided": 799, "Ġdad": 800, "Ġcouldn": 801, "Ġcourse": 802, "Ġcatching": 803, "Ġcarefully": 804, "Ġcame": 805, "Ġcuriously": 806, "Ġcolor": 807, "Ġcarried": 808, "Ġbetter": 809, "Ġbefore": 810, "Ġbuy": 811, "Ġbirds": 812, "Ġanywhere": 813, "Ġat": 814, "Ġas": 815, "Ġarrived": 816, "Ġaround": 817, "Ġare": 818, "Ġappreciation": 819, "Ġalways": 820, "Ġacross": 821, "ĠWill": 822, "ĠWhat": 823, "ĠThen": 824, "ĠThis": 825, "ĠSo": 826, "ĠAt": 827, "ĠAll": 828, "ĠAfter": 829, "Ġriver": 830, "Ġoutside": 831, "Ġkept": 832, "Ġimagination": 833, "Ġignore": 834, "Ġif": 835, "Ġget": 836, "ĠHis": 837, "ĠCan": 838, "ĢĿ": 839, "Ģľ": 840, "zing": 841, "zin": 842, "zi": 843, "zed": 844, "ze": 845, "your": 846, "ys": 847, "yo": 848, "yin": 849, "yi": 850, "yed": 851, "ye": 852, "wo": 853, "wim": 854, "wi": 855, "whe": 856, "wh": 857, "wer": 858, "wed": 859, "we": 860, "wam": 861, "wa": 862, "vin": 863, "vi": 864, "very": 865, "ven": 866, "vas": 867, "va": 868, "uti": 869, "us": 870, "up": 871, "une": 872, "und": 873, "ul": 874, "ud": 875, "tore": 876, "tone": 877, "thers": 878, "ty": 879, "tu": 880, "ts": 881, "tl": 882, "ti": 883, "th": 884, "te": 885, "tc": 886, "ta": 887, "sy": 888, "sw": 889, "su": 890, "st": 891, "sp": 892, "so": 893, "sm": 894, "sly": 895, "sl": 896, "si": 897, "she": 898, "sh": 899, "sed": 900, "sc": 901, "sa": 902, "riends": 903, "riendl": 904, "rett": 905, "ret": 906, "res": 907, "rem": 908, "rel": 909, "ree": 910, "reall": 911, "real": 912, "rea": 913, "ry": 914, "rt": 915, "rs": 916, "rri": 917, "rr": 918, "rp": 919, "roug": 920, "rn": 921, "rl": 922, "rk": 923, "rit": 924, "ris": 925, "rg": 926, "red": 927, "rd": 928, "ra": 929, "ppy": 930, "ppreci": 931, "pprec": 932, "ppre": 933, "ppily": 934, "ppen": 935, "py": 936, "pre": 937, "pr": 938, "po": 939, "pl": 940, "pk": 941, "pir": 942, "pily": 943, "pi": 944, "per": 945, "pen": 946, "pec": 947, "pe": 948, "pa": 949, "owed": 950, "outsid": 951, "outs": 952, "ous": 953, "our": 954, "ould": 955, "oul": 956, "oud": 957, "otic": 958, "oti": 959, "orl": 960, "org": 961, "omet": 962, "oked": 963, "oved": 964, "ov": 965, "oss": 966, "os": 967, "opkeep": 968, "opkee": 969, "opke": 970, "op": 971, "oo": 972, "oing": 973, "oin": 974, "oi": 975, "og": 976, "of": 977, "od": 978, "nexpec": 979, "nexp": 980, "nex": 981, "nds": 982, "ndl": 983, "nde": 984, "ny": 985, "nt": 986, "no": 987, "nn": 988, "nl": 989, "ni": 990, "ng": 991, "ned": 992, "na": 993, "mind": 994, "met": 995, "mean": 996, "mea": 997, "mazing": 998, "mazed": 999, "my": 1000, "muc": 1001, "mu": 1002, "mo": 1003, "med": 1004, "mb": 1005, "man": 1006, "lly": 1007, "lled": 1008, "ldn": 1009, "laying": 1010, "layed": 1011, "lway": 1012, "lw": 1013, "lu": 1014, "lower": 1015, "low": 1016, "lore": 1017, "lor": 1018, "lo": 1019, "lk": 1020, "lit": 1021, "led": 1022, "la": 1023, "kep": 1024, "kee": 1025, "ky": 1026, "kne": 1027, "kn": 1028, "kin": 1029, "ki": 1030, "itt": 1031, "its": 1032, "ited": 1033, "isp": 1034, "ised": 1035, "irits": 1036, "into": 1037, "int": 1038, "inn": 1039, "inat": 1040, "ina": 1041, "ign": 1042, "ifu": 1043, "ieve": 1044, "iev": 1045, "iend": 1046, "ide": 1047, "icked": 1048, "iver": 1049, "ived": 1050, "iv": 1051, "iou": 1052, "io": 1053, "ind": 1054, "il": 1055, "ike": 1056, "ik": 1057, "ied": 1058, "iation": 1059, "iat": 1060, "ia": 1061, "hey": 1062, "here": 1063, "her": 1064, "hem": 1065, "hu": 1066, "ht": 1067, "hr": 1068, "how": 1069, "hou": 1070, "ho": 1071, "hin": 1072, "hi": 1073, "ha": 1074, "gethe": 1075, "gs": 1076, "gre": 1077, "gr": 1078, "go": 1079, "gn": 1080, "gir": 1081, "gination": 1082, "gin": 1083, "gi": 1084, "gh": 1085, "gg": 1086, "ger": 1087, "ged": 1088, "fully": 1089, "full": 1090, "fu": 1091, "ft": 1092, "fr": 1093, "fo": 1094, "fl": 1095, "fi": 1096, "fe": 1097, "fa": 1098, "eryo": 1099, "ers": 1100, "enly": 1101, "enl": 1102, "ected": 1103, "ect": 1104, "ecid": 1105, "eci": 1106, "ey": 1107, "ex": 1108, "ew": 1109, "ev": 1110, "et": 1111, "es": 1112, "ep": 1113, "end": 1114, "em": 1115, "el": 1116, "eird": 1117, "eir": 1118, "ei": 1119, "ef": 1120, "eed": 1121, "ee": 1122, "eat": 1123, "eas": 1124, "ea": 1125, "dden": 1126, "dded": 1127, "du": 1128, "ds": 1129, "dr": 1130, "do": 1131, "dn": 1132, "dl": 1133, "din": 1134, "di": 1135, "den": 1136, "ded": 1137, "de": 1138, "da": 1139, "cy": 1140, "cu": 1141, "ct": 1142, "cro": 1143, "cr": 1144, "cou": 1145, "co": 1146, "cit": 1147, "cid": 1148, "ci": 1149, "ching": 1150, "ch": 1151, "ced": 1152, "ce": 1153, "ca": 1154, "bu": 1155, "bou": 1156, "bo": 1157, "ble": 1158, "bl": 1159, "bi": 1160, "be": 1161, "ba": 1162, "ays": 1163, "aying": 1164, "ayin": 1165, "ayed": 1166, "ati": 1167, "atc": 1168, "ases": 1169, "arted": 1170, "art": 1171, "arri": 1172, "arr": 1173, "ared": 1174, "ange": 1175, "ang": 1176, "aned": 1177, "ami": 1178, "alk": 1179, "az": 1180, "aw": 1181, "av": 1182, "autifu": 1183, "autif": 1184, "aut": 1185, "au": 1186, "are": 1187, "ap": 1188, "ame": 1189, "ak": 1190, "aid": 1191, "ai": 1192, "ag": 1193, "ac": 1194, "ab": 1195, "Yo": 1196, "Wo": 1197, "Wi": 1198, "When": 1199, "Whe": 1200, "Wh": 1201, "Ti": 1202, "Th": 1203, "Spirit": 1204, "Sp": 1205, "She": 1206, "Sh": 1207, "Onc": 1208, "On": 1209, "Oll": 1210, "Ol": 1211, "Luc": 1212, "Lu": 1213, "It": 1214, "Fr": 1215, "Ca": 1216, "Bu": 1217, "Bo": 1218, "Be": 1219, "An": 1220, "All": 1221, "Al": 1222, "Af": 1223, "?âĢ": 1224, "?â": 1225, "!âĢ": 1226, "!â": 1227, "Ġwor": 1228, "Ġwo": 1229, "Ġwit": 1230, "Ġwi": 1231, "Ġwhe": 1232, "Ġwh": 1233, "Ġwer": 1234, "Ġwen": 1235, "Ġwal": 1236, "Ġwa": 1237, "Ġver": 1238, "Ġvas": 1239, "Ġupo": 1240, "Ġune": 1241, "Ġtol": 1242, "Ġtoge": 1243, "Ġtog": 1244, "Ġther": 1245, "Ġthum": 1246, "Ġthu": 1247, "Ġthr": 1248, "Ġthough": 1249, "Ġthoug": 1250, "Ġthou": 1251, "Ġthing": 1252, "Ġthin": 1253, "Ġtha": 1254, "Ġturn": 1255, "Ġtur": 1256, "Ġtu": 1257, "Ġtig": 1258, "Ġti": 1259, "Ġta": 1260, "Ġspir": 1261, "Ġspec": 1262, "Ġspe": 1263, "Ġsomet": 1264, "Ġsho": 1265, "Ġshin": 1266, "Ġsha": 1267, "Ġsurpris": 1268, "Ġsurpr": 1269, "Ġsurp": 1270, "Ġsur": 1271, "Ġsudden": 1272, "Ġsudd": 1273, "Ġsu": 1274, "Ġstar": 1275, "Ġst": 1276, "Ġsmil": 1277, "Ġsmi": 1278, "Ġsma": 1279, "Ġsm": 1280, "Ġse": 1281, "Ġscar": 1282, "Ġsc": 1283, "Ġremi": 1284, "Ġrem": 1285, "Ġreliab": 1286, "Ġrelia": 1287, "Ġreli": 1288, "Ġrel": 1289, "Ġreall": 1290, "Ġprou": 1291, "Ġpre": 1292, "Ġpr": 1293, "Ġpl": 1294, "Ġpic": 1295, "Ġpi": 1296, "Ġpar": 1297, "Ġpa": 1298, "Ġov": 1299, "Ġott": 1300, "Ġothe": 1301, "Ġot": 1302, "Ġoran": 1303, "Ġor": 1304, "Ġnotic": 1305, "Ġnev": 1306, "Ġnodd": 1307, "Ġno": 1308, "Ġnic": 1309, "Ġni": 1310, "Ġnam": 1311, "Ġna": 1312, "Ġmuc": 1313, "Ġmo": 1314, "Ġman": 1315, "Ġmad": 1316, "Ġma": 1317, "Ġloo": 1318, "Ġlik": 1319, "Ġluck": 1320, "Ġluc": 1321, "Ġlu": 1322, "Ġlot": 1323, "Ġlit": 1324, "Ġlean": 1325, "Ġle": 1326, "Ġlat": 1327, "Ġla": 1328, "Ġkne": 1329, "Ġkn": 1330, "Ġhappen": 1331, "Ġhav": 1332, "Ġhap": 1333, "Ġhurr": 1334, "Ġhur": 1335, "Ġhugg": 1336, "Ġhug": 1337, "Ġhu": 1338, "Ġhou": 1339, "Ġho": 1340, "Ġhi": 1341, "Ġgre": 1342, "Ġgr": 1343, "Ġgir": 1344, "Ġfriendl": 1345, "Ġforg": 1346, "Ġfu": 1347, "Ġfrie": 1348, "Ġfr": 1349, "Ġfou": 1350, "Ġfo": 1351, "Ġfl": 1352, "Ġfis": 1353, "Ġfi": 1354, "Ġfe": 1355, "Ġfas": 1356, "Ġfam": 1357, "Ġfa": 1358, "Ġevery": 1359, "Ġexpl": 1360, "Ġexp": 1361, "Ġexcit": 1362, "Ġexc": 1363, "Ġex": 1364, "Ġeas": 1365, "Ġduc": 1366, "Ġdu": 1367, "Ġdre": 1368, "Ġdr": 1369, "Ġdis": 1370, "Ġdin": 1371, "Ġdi": 1372, "Ġdec": 1373, "Ġde": 1374, "Ġda": 1375, "Ġcour": 1376, "Ġcaref": 1377, "Ġcare": 1378, "Ġcurious": 1379, "Ġcuriou": 1380, "Ġcuri": 1381, "Ġcur": 1382, "Ġcu": 1383, "Ġcol": 1384, "Ġco": 1385, "Ġcar": 1386, "Ġcall": 1387, "Ġbett": 1388, "Ġbet": 1389, "Ġbelie": 1390, "Ġbel": 1391, "Ġbef": 1392, "Ġbea": 1393, "Ġbu": 1394, "Ġbo": 1395, "Ġbird": 1396, "Ġbir": 1397, "Ġbi": 1398, "Ġba": 1399, "Ġanywhe": 1400, "Ġanyw": 1401, "Ġany": 1402, "Ġar": 1403, "Ġapp": 1404, "Ġap": 1405, "Ġama": 1406, "Ġam": 1407, "Ġal": 1408, "Ġac": 1409, "Ġab": 1410, "ĠWi": 1411, "ĠWh": 1412, "ĠTi": 1413, "ĠTh": 1414, "ĠOll": 1415, "ĠBu": 1416, "ĠBo": 1417, "ĠBe": 1418, "ĠAf": 1419, "ĠâĢ": 1420, "Ġâ": 1421, "Ġy": 1422, "Ġri": 1423, "Ġr": 1424, "Ġout": 1425, "Ġou": 1426, "Ġke": 1427, "Ġimag": 1428, "Ġima": 1429, "Ġim": 1430, "Ġig": 1431, "Ġi": 1432, "Ġge": 1433, "ĠY": 1434, "ĠL": 1435, "ĠH": 1436, "ĠC": 1437}