{"Ā": 0, "ā": 1, "Ă": 2, "ă": 3, "Ą": 4, "ą": 5, "Ć": 6, "ć": 7, "Ĉ": 8, "ĉ": 9, "Ċ": 10, "ċ": 11, "Č": 12, "č": 13, "Ď": 14, "ď": 15, "Đ": 16, "đ": 17, "Ē": 18, "ē": 19, "Ĕ": 20, "ĕ": 21, "Ė": 22, "ė": 23, "Ę": 24, "ę": 25, "Ě": 26, "ě": 27, "Ĝ": 28, "ĝ": 29, "Ğ": 30, "ğ": 31, "Ġ": 32, "!": 33, "\"": 34, "#": 35, "$": 36, "%": 37, "&": 38, "'": 39, "(": 40, ")": 41, "*": 42, "+": 43, ",": 44, "-": 45, ".": 46, "/": 47, "0": 48, "1": 49, "2": 50, "3": 51, "4": 52, "5": 53, "6": 54, "7": 55, "8": 56, "9": 57, ":": 58, ";": 59, "<": 60, "=": 61, ">": 62, "?": 63, "@": 64, "A": 65, "B": 66, "C": 67, "D": 68, "E": 69, "F": 70, "G": 71, "H": 72, "I": 73, "J": 74, "K": 75, "L": 76, "M": 77, "N": 78, "O": 79, "P": 80, "Q": 81, "R": 82, "S": 83, "T": 84, "U": 85, "V": 86, "W": 87, "X": 88, "Y": 89, "Z": 90, "[": 91, "\\": 92, "]": 93, "^": 94, "_": 95, "`": 96, "a": 97, "b": 98, "c": 99, "d": 100, "e": 101, "f": 102, "g": 103, "h": 104, "i": 105, "j": 106, "k": 107, "l": 108, "m": 109, "n": 110, "o": 111, "p": 112, "q": 113, "r": 114, "s": 115, "t": 116, "u": 117, "v": 118, "w": 119, "x": 120, "y": 121, "z": 122, "{": 123, "|": 124, "}": 125, "~": 126, "ġ": 127, "Ģ": 128, "ģ": 129, "Ĥ": 130, "ĥ": 131, "Ħ": 132, "ħ": 133, "Ĩ": 134, "ĩ": 135, "Ī": 136, "ī": 137, "Ĭ": 138, "ĭ": 139, "Į": 140, "į": 141, "İ": 142, "ı": 143, "Ĳ": 144, "ĳ": 145, "Ĵ": 146, "ĵ": 147, "Ķ": 148, "ķ": 149, "ĸ": 150, "Ĺ": 151, "ĺ": 152, "Ļ": 153, "ļ": 154, "Ľ": 155, "ľ": 156, "Ŀ": 157, "ŀ": 158, "Ł": 159, "ł": 160, "¡": 161, "¢": 162, "£": 163, "¤": 164, "¥": 165, "¦": 166, "§": 167, "¨": 168, "©": 169, "ª": 170, "«": 171, "¬": 172, "Ń": 173, "®": 174, "¯": 175, "°": 176, "±": 177, "²": 178, "³": 179, "´": 180, "µ": 181, "¶": 182, "·": 183, "¸": 184, "¹": 185, "º": 186, "»": 187, "¼": 188, "½": 189, "¾": 190, "¿": 191, "À": 192, "Á": 193, "Â": 194, "Ã": 195, "Ä": 196, "Å": 197, "Æ": 198, "Ç": 199, "È": 200, "É": 201, "Ê": 202, "Ë": 203, "Ì": 204, "Í": 205, "Î": 206, "Ï": 207, "Ð": 208, "Ñ": 209, "Ò": 210, "Ó": 211, "Ô": 212, "Õ": 213, "Ö": 214, "×": 215, "Ø": 216, "Ù": 217, "Ú": 218, "Û": 219, "Ü": 220, "Ý": 221, "Þ": 222, "ß": 223, "à": 224, "á": 225, "â": 226, "ã": 227, "ä": 228, "å": 229, "æ": 230, "ç": 231, "è": 232, "é": 233, "ê": 234, "ë": 235, "ì": 236, "í": 237, "î": 238, "ï": 239, "ð": 240, "ñ": 241, "ò": 242, "ó": 243, "ô": 244, "õ": 245, "ö": 246, "÷": 247, "ø": 248, "ù": 249, "ú": 250, "û": 251, "ü": 252, "ý": 253, "þ": 254, "ÿ": 255, "<|endoftext|>": 256, "Ġt": 257, "he": 258, "Ġa": 259, "Ġs": 260, "Ġw": 261, "nd": 262, "Ġthe": 263, "ed": 264, "Ġb": 265, "Ġto": 266, "Ġand": 267, "Ġh": 268, "Ġf": 269, "in": 270, "ĠT": 271, "Ġwa": 272, "re": 273, "it": 274, "ou": 275, "Ġl": 276, "Ġd": 277, "Ġc": 278, "Ġp": 279, "ay": 280, "Ġm": 281, "er": 282, "Ġwas": 283, "om": 284, "ĠThe": 285, "Ġhe": 286, "is": 287, "ar": 288, "Ġn": 289, "im": 290, "on": 291, "Ġsa": 292, "id": 293, "ll": 294, "Ġha": 295, "Ġg": 296, "at": 297, "ĠS": 298, "ing": 299, "ot": 300, "en": 301, "an": 302, "le": 303, "or": 304, "ir": 305, "am": 306, "et": 307, "ĠH": 308, "Ġit": 309, "Ġth": 310, "ig": 311, "ĠThey": 312, "Ġin": 313, "il": 314, "Ġpl": 315, "ĠHe": 316, "Ġ\"": 317, "ow": 318, "ver": 319, "ri": 320, "ut": 321, "Ġbe": 322, "Ġu": 323, "Ġsaid": 324, "Ġplay": 325, "ith": 326, "Ġday": 327, "Ġwith": 328, "pp": 329, "On": 330, "Ġo": 331, "Ġy": 332, "oo": 333, "ked": 334, "Ġr": 335, "Ġher": 336, "ce": 337, "ĠI": 338, "ĠShe": 339, "ld": 340, "ĠTim": 341, "Ġhis": 342, "Ġst": 343, "ke": 344, "Ġe": 345, "Ġbig": 346, "nt": 347, "ck": 348, "Ġyou": 349, "very": 350, "st": 351, "ve": 352, "end": 353, "Ġon": 354, "un": 355, "Ġhapp": 356, "riend": 357, "Ġfriend": 358, "all": 359, "ily": 360, "ĠL": 361, "Ġthey": 362, "Ġwe": 363, "Ġhad": 364, "Ġnot": 365, "Ġli": 366, "Ġup": 367, "her": 368, "Ġwant": 369, "Ġof": 370, "ad": 371, "itt": 372, "se": 373, "ĠB": 374, "Ġdo": 375, "Ġhappy": 376, "ent": 377, "Ġvery": 378, "ĠM": 379, "es": 380, "Ġthat": 381, "Ġsaw": 382, "One": 383, "'s": 384, "ould": 385, "Ġmom": 386, "Ġfor": 387, "Ġsh": 388, "ittle": 389, "Ġlittle": 390, "Ġso": 391, "Ġshe": 392, "ch": 393, "ime": 394, "Ġne": 395, "Ġnam": 396, ".\"": 397, "Ġtime": 398, "Ġk": 399, "ound": 400, "Ġthere": 401, "Ġnamed": 402, "Ġsm": 403, "Ġbo": 404, "Ġwere": 405, "ĠLily": 406, "Ġwanted": 407, "Ġbut": 408, "out": 409, "The": 410, "Ġfriends": 411, "ved": 412, "!\"": 413, "ht": 414, "ĠTom": 415, "ird": 416, "el": 417, "Ġbird": 418, "al": 419, "Ġan": 420, "ake": 421, "Ġtoo": 422, "ome": 423, "ĠIt": 424, "ug": 425, "ide": 426, "Ġwent": 427, "Ġwh": 428, "Ġhel": 429, "Once": 430, "Ġis": 431, "Ġall": 432, "Ġhelp": 433, "ue": 434, "Ġloo": 435, "Ġlo": 436, "ter": 437, "ĠA": 438, "Ġupon": 439, "ry": 440, "ore": 441, "ind": 442, "Ġfun": 443, "get": 444, "Ġtoy": 445, "ill": 446, "ame": 447, "Ġas": 448, "Ġat": 449, "ra": 450, "Ġj": 451, "Ġdid": 452, "gether": 453, "Ġre": 454, "ur": 455, "Ġse": 456, "Ġtogether": 457, "ack": 458, "Ġcat": 459, "ly": 460, "Ġtre": 461, "ood": 462, "ic": 463, "ted": 464, "Ġdog": 465, "Ġcould": 466, "Ġcan": 467, "Ġtheir": 468, "ard": 469, "ec": 470, "ark": 471, "Ġgir": 472, "Ġplayed": 473, "Ġhim": 474, "Ġball": 475, "?\"": 476, "Ġgirl": 477, "way": 478, "Ġro": 479, "Ġgo": 480, "hed": 481, "my": 482, "Ġare": 483, "Ġout": 484, "Ġle": 485, "Ġfr": 486, "ain": 487, "Ġkn": 488, "hen": 489, "Ġthem": 490, "um": 491, "'t": 492, "ax": 493, "Ġsad": 494, "ul": 495, "Ġboy": 496, "Ġtree": 497, "other": 498, "Ġhave": 499, "Ġman": 500, "Ġcl": 501, "Ġloved": 502, "Ġlooked": 503, "oug": 504, "Ġfound": 505, "Ġsp": 506, "Ġstar": 507, "ĠSue": 508, "one": 509, "hing": 510, "Ġsc": 511, "Ġback": 512, "own": 513, "ĠMax": 514, "are": 515, "Ġlike": 516, "ful": 517, "side": 518, "Ġme": 519, "Ġbec": 520, "Ġpark": 521, "ight": 522, "ong": 523, "Ġcar": 524, "op": 525, "elt": 526, "ĠOne": 527, "Ġliked": 528, "Ġwould": 529, "Ġmake": 530, "round": 531, "Ġla": 532, "Ġfa": 533, "Ġfelt": 534, "You": 535, "ĠW": 536, "ell": 537, "Ġsee": 538, "ĠBut": 539, "omet": 540, "Ġasked": 541, "ag": 542, "Ġnew": 543, "Ġno": 544, "ice": 545, "ĠSam": 546, "ouse": 547, "Ġstarted": 548, "ared": 549, "Ġcame": 550, "ĠBen": 551, "Ġal": 552, "Ġother": 553, "ought": 554, "iled": 555, "Ġsomet": 556, "Ġag": 557, "Ġgood": 558, "Ġsmall": 559, "ss": 560, "Ġbr": 561, "Ġsmiled": 562, "Ġsay": 563, "ried": 564, "ade": 565, "ings": 566, "ob": 567, "pot": 568, "Ġwor": 569, "Ġfind": 570, "Ġex": 571, "ia": 572, "Ġaway": 573, "ty": 574, "Ġput": 575, "Ġwhat": 576, "Ġsomething": 577, "Ġco": 578, "Ġfrom": 579, "Ġmade": 580, "Ġthought": 581, "ened": 582, "Ġhome": 583, "Ġplaying": 584, "ook": 585, "Ġevery": 586, "Ġwal": 587, "Ġmu": 588, "uc": 589, "ach": 590, "arn": 591, "ĠSpot": 592, "Ġran": 593, "ile": 594, "ĠF": 595, "ie": 596, "ĠJ": 597, "ave": 598, "Ġagain": 599, "Ġsome": 600, "Ġlaug": 601, "dd": 602, "Ġhouse": 603, "Ġdown": 604, "Ġfl": 605, "king": 606, "Ġtook": 607, "Ġscared": 608, "Ġpr": 609, "ny": 610, "ure": 611, "Ġtoys": 612, "Ġlearn": 613, "ĠYou": 614, "if": 615, "Ġwill": 616, "Ġbox": 617, "ick": 618, "ret": 619, "ab": 620, "ep": 621, "Ġmy": 622, "Ġaround": 623, "Ġthings": 624, "Ġyour": 625, "oud": 626, "Ġbl": 627, "uck": 628, "Ġwhen": 629, "ish": 630, "Ġlived": 631, "Ġfe": 632, "Ġthen": 633, "Ġsun": 634, "as": 635, "Ġsw": 636, ",\"": 637, "Ġch": 638, "us": 639, "pped": 640, "Ġab": 641, "ĠMia": 642, "ank": 643, "Ġget": 644, "ucy": 645, "Tim": 646, "ump": 647, "Th": 648, "Ġlot": 649, "ist": 650, "oth": 651, "Ġtried": 652, "ap": 653, "Ġknow": 654, "Ġsays": 655, "Ġgot": 656, "ited": 657, "Ġwho": 658, "Ġkne": 659, "ust": 660, "Ġmany": 661, "nder": 662, "Ġint": 663, "Ġabout": 664, "Lily": 665, "Ġpret": 666, "Ġdec": 667, "Ġany": 668, "Ġred": 669, "ĠD": 670, "ive": 671, "Ġknew": 672, "ace": 673, "ous": 674, "Ġmore": 675, "ise": 676, "Ġcare": 677, "ally": 678, "Ġpic": 679, "au": 680, "qu": 681, "Ġhug": 682, "ĠLucy": 683, "Ġlearned": 684, "Ġpo": 685, "Ġwater": 686, "fter": 687, "Ġv": 688, "Ġbecame": 689, "Ġbest": 690, "ause": 691, "Ġop": 692, "Ġgre": 693, "Ġexc": 694, "urp": 695, "ways": 696, "âĢ": 697, "Ġoutside": 698, "Ġlaughed": 699, "Ġlook": 700, "Ġalways": 701, "Ġdecid": 702, "Ġshow": 703, "Ġun": 704, "ant": 705, "ĠBob": 706, "Ġroom": 707, "fe": 708, "Ġdecided": 709, "Ġho": 710, "Ġbecause": 711, "ĠSo": 712, "Ġinto": 713, "Ġeat": 714, "ite": 715, "Ġjump": 716, "ĠAnd": 717, "Ġpe": 718, "Ġboth": 719, "ers": 720, "ĠMom": 721, "Ġdad": 722, "They": 723, "udd": 724, "Ġke": 725, "Ġone": 726, "nn": 727, "Ġthis": 728, "Ġexcited": 729, "Ġfast": 730, "Ġnice": 731, "ĠE": 732, "Ġfeel": 733, "Tom": 734, "Yes": 735, "Ġrun": 736, "Ġlong": 737, "Ġtold": 738, "Ġsk": 739, "Ġam": 740, "urpr": 741, "our": 742, "Ġinside": 743, "ull": 744, "Ġtr": 745, "Ġsurpr": 746, "Ġmo": 747, "ink": 748, "Ġpretty": 749, "iny": 750, "Ġsor": 751, "Wh": 752, "Ġtake": 753, "og": 754, "Ġsl": 755, "Ġeach": 756, "Ġgave": 757, "Ġmuch": 758, "Ġgra": 759, "lew": 760, "nna": 761, "Ġrock": 762, "Ġhow": 763, "Ġstr": 764, "ara": 765, "imal": 766, "Ġanimal": 767, "ged": 768, "Ġneed": 769, "Ġthan": 770, "But": 771, "ven": 772, "etter": 773, "Ġtow": 774, "Ġor": 775, "ĠC": 776, "Ġunder": 777, "ess": 778, "Ġold": 779, "Ġsorry": 780, "ge": 781, "ised": 782, "ro": 783, "urt": 784, "Ġcle": 785, "Ġfish": 786, "Ġwalked": 787, "Ġclo": 788, "and": 789, "Ġbear": 790, "ft": 791, "ase": 792, "ast": 793, "Ġhand": 794, "urn": 795, "ĠWe": 796, "Ġkind": 797, "ĠHis": 798, "Ġte": 799, "here": 800, "Ġhappened": 801, "Ġjust": 802, "Ġflow": 803, "Ġfood": 804, "Ġlist": 805, "Ġdidn": 806, "Ġanimals": 807, "Ġhig": 808, "pl": 809, "Ġnear": 810, "Ġwat": 811, "Ġide": 812, "Ġtry": 813, "ched": 814, "Ġsky": 815, "ine": 816, "Ġsn": 817, "ving": 818, "Ġfi": 819, "rom": 820, "Ġus": 821, "Ġidea": 822, "Ġbetter": 823, "ĠAmy": 824, "Ġbug": 825, "Ġheard": 826, "gry": 827, "Ġits": 828, "Ġtw": 829, "Ġlet": 830, "pec": 831, "ate": 832, "able": 833, "ff": 834, "Ġen": 835, "Ġcareful": 836, "Ġshare": 837, "ex": 838, "Ġif": 839, "Thank": 840, "Mom": 841, "Ġfly": 842, "Ġstor": 843, "ial": 844, "Ġflew": 845, "more": 846, "Ġanymore": 847, "ĠTh": 848, "Ġspec": 849, "Ġspecial": 850, "ion": 851, "Ġcom": 852, "Ġlots": 853, "Ġnever": 854, "Ġby": 855, "lf": 856, "ream": 857, "Ġdan": 858, "Ġbu": 859, "Ġfo": 860, "Ġwind": 861, "Ġdon": 862, "Ġtal": 863, "Ġclean": 864, "ort": 865, "Ġgr": 866, "Ġlove": 867, "rm": 868, "ber": 869, "Ġend": 870, "ĊĊ": 871, "ĠThen": 872, "ople": 873, "Ġeven": 874, "Ġmag": 875, "Ġhard": 876, "Ġshiny": 877, "udden": 878, "Ġfore": 879, "Ġover": 880, "Ġcake": 881, "ak": 882, "Ġbook": 883, "Ġcol": 884, "Ġturn": 885, "Ġfam": 886, "Ġbad": 887, "Ġsafe": 888, "Ġafter": 889, "ady": 890, "ĠAnna": 891, "uddenly": 892, "Ġpeople": 893, "Ġproud": 894, "ĠEvery": 895, "Ġsurprised": 896, "pected": 897, "Let": 898, "Ġhigh": 899, "Ġcu": 900, "Ġhurt": 901, "Ġcome": 902, "imb": 903, "arden": 904, "Ġdoor": 905, "Ġgarden": 906, "bb": 907, "Ġground": 908, "Ġopened": 909, "Ġpicked": 910, "Ġloud": 911, "Ġclimb": 912, "expected": 913, "Ġunexpected": 914, "Ġgl": 915, "Ġche": 916, "ild": 917, "Ġim": 918, "As": 919, "Ġgive": 920, "Ġway": 921, "ail": 922, "'m": 923, "Ġthanked": 924, "Ġcolor": 925, "Ġblue": 926, "Ġstill": 927, "Ġever": 928, "Ġhugged": 929, "ĠFrom": 930, "Ġcall": 931, "Ġfar": 932, "ip": 933, "ĠHer": 934, "ĠSara": 935, "ĠWhen": 936, "No": 937, "Ġoff": 938, "Ġmagic": 939, "iz": 940, "ough": 941, "age": 942, "ummy": 943, "ĠK": 944, "Ġjumped": 945, "Ġshould": 946, "Ġfamily": 947, "Ġpar": 948, "ool": 949, "Ġkid": 950, "Ġsmile": 951, "hes": 952, "uff": 953, "Ġplace": 954, "kay": 955, "Ġwalk": 956, "Ġnow": 957, "ct": 958, "ĠIn": 959, "Ġgreat": 960, "em": 961, "ture": 962, "Ġqu": 963, "les": 964, "Ġstrong": 965, "Ġstay": 966, "Ġunt": 967, "Ġsto": 968, "aut": 969, "Ġforest": 970, "ane": 971, "Ġbra": 972, "itty": 973, "ĠP": 974, "Ġfrog": 975, "Ġbro": 976, "Ġuntil": 977, "oon": 978, "Ġbeaut": 979, "dy": 980, "Ġsqu": 981, "Ġstick": 982, "xt": 983, "Ġnext": 984, "Ġboat": 985, "lease": 986, "ning": 987, "Ġhappily": 988, "Ġlisten": 989, "aking": 990, "Ġkids": 991, "Ġtra": 992, "ies": 993, "iful": 994, "Ġbeautiful": 995, "Ġapp": 996, "th": 997, "Ġhelped": 998, "Ġdra": 999, "Ġshowed": 1000, "Ġclos": 1001, "be": 1002, "Ġimp": 1003, "Ġstory": 1004, "unny": 1005, "oy": 1006, "Ġwhile": 1007, "Ġtown": 1008, "rel": 1009, "pt": 1010, "Ġrain": 1011, "ress": 1012, "Ġpicture": 1013, "Ġbeing": 1014, "Ġrem": 1015, "Ġeveryone": 1016, "It": 1017, "ary": 1018, "ree": 1019, "Ġmor": 1020, "Ġhat": 1021, "Ġcalled": 1022, "Ġmet": 1023, "Ġstopped": 1024, "Ġad": 1025, "Ġgame": 1026, "Now": 1027, "He": 1028, "Can": 1029, "Ġangry": 1030, "ger": 1031, "uffy": 1032, "Ġopen": 1033, "Ġwo": 1034, "Ġtruck": 1035, "Ġkeep": 1036, "Ġsoft": 1037, "When": 1038, "Ġcry": 1039, "Ġyummy": 1040, "Ġlost": 1041, "Ġbed": 1042, "ĠLet": 1043, "ĠSally": 1044, "Ġwarm": 1045, "by": 1046, "vent": 1047, "Ġbrave": 1048, "Ġmouse": 1049, "ĠWh": 1050, "Ġate": 1051, "ĠKitty": 1052, "ished": 1053, "Ġde": 1054, "fore": 1055, "Ġdoll": 1056, "so": 1057, "Ġcouldn": 1058, "Ġwatch": 1059, "Ġleave": 1060, "Ġalso": 1061, "dded": 1062, "Ġfell": 1063, "Ġgreen": 1064, "Ġface": 1065, "Ġtwo": 1066, "gan": 1067, "iss": 1068, "Ġflowers": 1069, "bit": 1070, "What": 1071, "ĠR": 1072, "ble": 1073, "Ġnoise": 1074, "abbit": 1075, "irst": 1076, "owl": 1077, "Ġwhere": 1078, "az": 1079, "ock": 1080, "Ġsoon": 1081, "self": 1082, "Ġslide": 1083, "Ġrabbit": 1084, "Ġhole": 1085, "luffy": 1086, "Ġbefore": 1087, "irrel": 1088, "Ġpus": 1089, "ired": 1090, "Ġsat": 1091, "illy": 1092, "Ġhear": 1093, "Ġuse": 1094, "âĢĿ": 1095, "Hi": 1096, "Ġpa": 1097, "Ġkept": 1098, "âĢľ": 1099, "That": 1100, "Ġsquirrel": 1101, "ear": 1102, "Then": 1103, "ma": 1104, "Ġnodded": 1105, "Ġexpl": 1106, "Ġstore": 1107, "Ġcook": 1108, "Ġhands": 1109, "Look": 1110, "Ġbirds": 1111, "Ġpain": 1112, "Ġgoing": 1113, "Ġfunny": 1114, "Ġhaving": 1115, "day": 1116, "Ġsing": 1117, "aybe": 1118, "uch": 1119, "Ġey": 1120, "aug": 1121, "Ġcatch": 1122, "aught": 1123, "ĠCan": 1124, "ĠFluffy": 1125, "uit": 1126, "Ġyell": 1127, "Ġthink": 1128, "leep": 1129, "Ġcra": 1130, "Ġfin": 1131, "Ben": 1132, "Ġbre": 1133, "Ġfix": 1134, "Ġtired": 1135, "Ġbunny": 1136, "Ġused": 1137, "Ġlooking": 1138, "Ġbus": 1139, "ange": 1140, "air": 1141, "Ġwork": 1142, "Ġwr": 1143, "Ġour": 1144, "Ġpull": 1145, "We": 1146, "Ġthr": 1147, "thing": 1148, "ĠNow": 1149, "Ġwait": 1150, "Ġkit": 1151, "Ġsound": 1152, "ting": 1153, "Ġjo": 1154, "Ġhas": 1155, "ĠG": 1156, "Ġmean": 1157, "Ġpond": 1158, "ember": 1159, "Ġbeh": 1160, "Ġdr": 1161, "Ġsunny": 1162, "led": 1163, "Ġothers": 1164, "Ġask": 1165, "ng": 1166, "chen": 1167, "Ġkitchen": 1168, "Ġtalk": 1169, "Ġflo": 1170, "Ġdif": 1171, "rew": 1172, "Ġpie": 1173, "ĠJo": 1174, "Ġhead": 1175, "Ġreal": 1176, "Ġfirst": 1177, "Ġtri": 1178, "Ġmommy": 1179, "Ġeyes": 1180, "ello": 1181, "Ġimport": 1182, "Hello": 1183, "Ġfav": 1184, "ath": 1185, "joy": 1186, "Ġz": 1187, "Ġremember": 1188, "Ġright": 1189, "Ġflower": 1190, "Ġcon": 1191, "Ġmess": 1192, "Ġparty": 1193, "Ġcold": 1194, "ĠDo": 1195, "Ġvo": 1196, "Ġswe": 1197, "ious": 1198, "Ġsand": 1199, "ĠâĢľ": 1200, "ac": 1201, "orn": 1202, "Ġrace": 1203, "Ġcuri": 1204, "imes": 1205, "Ġimportant": 1206, "Ġduck": 1207, "Ġmoral": 1208, "Ġshared": 1209, "zy": 1210, "ount": 1211, "ĠJack": 1212, "Ġice": 1213, "Ġokay": 1214, "Ġadvent": 1215, "Ġworked": 1216, "llow": 1217, "At": 1218, "Ġenjoy": 1219, "Ġdress": 1220, "Ġbright": 1221, "Ġmaking": 1222, "Ġcurious": 1223, "Ġown": 1224, "Ġtall": 1225, "Ġdir": 1226, "Ġhop": 1227, "reed": 1228, "Ġhid": 1229, "Ġfavor": 1230, "Ġri": 1231, "hn": 1232, "Ġsleep": 1233, "Ġdis": 1234, "Wow": 1235, "Ġfavorite": 1236, "Ġthing": 1237, "Ġbegan": 1238, "Ġmon": 1239, "Ġbag": 1240, "Ġhill": 1241, "Don": 1242, "Ġcla": 1243, "Ġdraw": 1244, "Ġrest": 1245, "Ġhere": 1246, "Ġyard": 1247, "Ġtell": 1248, "ĠFin": 1249, "ster": 1250, "Ġwatched": 1251, "que": 1252, "Ġfollow": 1253, "Ġmove": 1254, "Ġbel": 1255, "eded": 1256, "ect": 1257, "Ġcut": 1258, "Ġnight": 1259, "Ġagreed": 1260, "Ġpick": 1261, "co": 1262, "Ġblock": 1263, "Ġhun": 1264, "aper": 1265, "lly": 1266, "Ġstop": 1267, "Ġbehind": 1268, "ĠThis": 1269, "Ġsurprise": 1270, "ied": 1271, "Ġsho": 1272, "Ġhot": 1273, "After": 1274, "Ġtable": 1275, "Ġgrass": 1276, "Ġworry": 1277, "Ġdark": 1278, "Ġtrees": 1279, "Ġvoice": 1280, "Ġwalking": 1281, "fere": 1282, "Ġfloor": 1283, "Ġfarm": 1284, "Ġlion": 1285, "Ġtop": 1286, "Ġdiffere": 1287, "Ġplease": 1288, "Ġru": 1289, "Ġsong": 1290, "Ġbutter": 1291, "Ġtail": 1292, "Ġsweet": 1293, "Max": 1294, "Ġshout": 1295, "Ġcolors": 1296, "Ġread": 1297, "ĠDad": 1298, "Ġlady": 1299, "Ġforg": 1300, "isy": 1301, "Ġleaves": 1302, "Ġcloser": 1303, "ign": 1304, "Ġcars": 1305, "Ġturned": 1306, "Ġneeded": 1307, "Ġtast": 1308, "Why": 1309, "aring": 1310, "Ġwood": 1311, "Ġcried": 1312, "Ġdifferent": 1313, "Ġlaugh": 1314, "Ġdel": 1315, "Ġpiece": 1316, "âĢĻ": 1317, "ered": 1318, "ĠMr": 1319, "Ġroll": 1320, "Ġadventure": 1321, "Ġfire": 1322, "Ġdoes": 1323, "ike": 1324, "Ġcr": 1325, "Ġhungry": 1326, "Ġhair": 1327, "ĠSuddenly": 1328, "Ġpaper": 1329, "Ġfeeling": 1330, "Ġyellow": 1331, "Ġfull": 1332, "bo": 1333, "Ġprin": 1334, "Sue": 1335, "Ġtouch": 1336, "ĠAs": 1337, "Anna": 1338, "Sam": 1339, "Ġwet": 1340, "Ġfriendly": 1341, "Ġper": 1342, "oom": 1343, "ken": 1344, "cked": 1345, "ached": 1346, "Ġswing": 1347, "Ġfruit": 1348, "ient": 1349, "Ġbroken": 1350, "Ġready": 1351, "bye": 1352, "ppy": 1353, "Ġprom": 1354, "ĠThat": 1355, "Ġanother": 1356, "Ġlight": 1357, "Ġpretend": 1358, "Ġdance": 1359, "ater": 1360, "Ġclimbed": 1361, "where": 1362, "Ġlistened": 1363, "ĠBobo": 1364, "Ġdanc": 1365, "Ġrunning": 1366, "Ġonly": 1367, "Ġplan": 1368, "Ġgone": 1369, "Ġswim": 1370, "bbed": 1371, "Suddenly": 1372, "sh": 1373, "Ġtrain": 1374, "ila": 1375, "ndma": 1376, "Sara": 1377, "ĠJane": 1378, "Ġclose": 1379, "av": 1380, "She": 1381, "Ġsmell": 1382, "So": 1383, "aby": 1384, "Ġamaz": 1385, "Ġhold": 1386, "Ġblocks": 1387, "Ġwonder": 1388, "ĠTimmy": 1389, "Ġrepl": 1390, "ĠAll": 1391, "Ġbutterf": 1392, "Ġsees": 1393, "Ġreached": 1394, "Ġwall": 1395, "Ġpu": 1396, "oney": 1397, "red": 1398, "Ġslow": 1399, "Ġhelping": 1400, "Ġdri": 1401, "Ġcream": 1402, "Ġcool": 1403, "Ġglad": 1404, "af": 1405, "Ġant": 1406, "Ġless": 1407, "Ġbeen": 1408, "Ġgoodbye": 1409, "Ġac": 1410, "Ġfight": 1411, "ather": 1412, "Mia": 1413, "Ġpushed": 1414, "iced": 1415, "Ġfair": 1416, "Ġmust": 1417, "Ġhide": 1418, "Ġmoment": 1419, "Ġwindow": 1420, "ĠO": 1421, "Ġsit": 1422, "Ġballoon": 1423, "Ġsnow": 1424, "Ġchild": 1425, "Ġexplore": 1426, "ĠEveryone": 1427, "Ġar": 1428, "Ġwished": 1429, "Ġbaby": 1430, "Ġdone": 1431, "Ġwag": 1432, "Ġste": 1433, "Ġbuy": 1434, "Ġstuck": 1435, "Ġperf": 1436, "Ġthank": 1437, "Ġmight": 1438, "icy": 1439, "Ġname": 1440, "ized": 1441, "Ġtrying": 1442, "Ġbit": 1443, "Ġcoming": 1444, "Ġbar": 1445, "Ġquick": 1446, "Ġfall": 1447, "Ġapple": 1448, "ash": 1449, "Ġscary": 1450, "Ġlooks": 1451, "Ġbuild": 1452, "Ġdoing": 1453, "Ġwin": 1454, "Ġunderst": 1455, "aisy": 1456, "Ġdin": 1457, "Ġdream": 1458, "Ġdirty": 1459, "Ġheld": 1460, "ames": 1461, "Ġbooks": 1462, "Ġmar": 1463, "In": 1464, "Ġbutterfly": 1465, "Ġleft": 1466, "Ġshouted": 1467, "Ġcount": 1468, "Ġreplied": 1469, "avy": 1470, "Ġreach": 1471, "Ġtiny": 1472, "Ġthrough": 1473, "ott": 1474, "Ġdro": 1475, "Ġwhy": 1476, "Ġair": 1477, "Ġbran": 1478, "Ġland": 1479, "key": 1480, "Ġthree": 1481, "Ġpulled": 1482, "Ġspl": 1483, "Ġgrow": 1484, "Ġtreat": 1485, "Ġbrother": 1486, "Ġwise": 1487, "Ġwoods": 1488, "Ġsure": 1489, "'re": 1490, "Ġchair": 1491, "ix": 1492, "Ġmat": 1493, "ins": 1494, "Ġseen": 1495, "Ġpink": 1496, "Ġclapped": 1497, "Ġplant": 1498, "ely": 1499, "Ġowl": 1500, "Ġcup": 1501, "ield": 1502, "Ġsometimes": 1503, "andy": 1504, "Ġfill": 1505, "Ġcloud": 1506, "ask": 1507, "Ġswam": 1508, "outh": 1509, "Ġjob": 1510, "Ġcolorful": 1511, "Ġremembered": 1512, "Ġbigger": 1513, "Ġnest": 1514, "Ġmouth": 1515, "pe": 1516, "Okay": 1517, "Ġlesson": 1518, "Ġjoin": 1519, "Ġcre": 1520, "ph": 1521, "ĠThere": 1522, "oup": 1523, "room": 1524, "art": 1525, "Ġwaved": 1526, "uddy": 1527, "Ġgrabbed": 1528, "Ġstayed": 1529, "Oh": 1530, "Ġpaint": 1531, "This": 1532, "Ġclot": 1533, "Ġcont": 1534, "Ġclothes": 1535, "Ġve": 1536, "ower": 1537, "ĠAfter": 1538, "Ġwaited": 1539, "Ġquickly": 1540, "cle": 1541, "Ġword": 1542, "Ġbroke": 1543, "ucky": 1544, "Ġgames": 1545, "Ġcast": 1546, "Ġblew": 1547, "Ġgent": 1548, "inging": 1549, "ĠMommy": 1550, "Ġenjoyed": 1551, "Ġnoticed": 1552, "Jo": 1553, "ries": 1554, "ation": 1555, "Ġset": 1556, "Ġlikes": 1557, "Ġpictures": 1558, "ton": 1559, "de": 1560, "Ġsea": 1561, "Ġheavy": 1562, "Ġmus": 1563, "Ġalone": 1564, "Ġgif": 1565, "asure": 1566, "Ġanything": 1567, "Ġspot": 1568, "Ġmiss": 1569, "Ġhopped": 1570, "Ġworld": 1571, "Ġturns": 1572, "orm": 1573, "Ġyear": 1574, "der": 1575, "Ġbott": 1576, "Ġpat": 1577, "Ġpot": 1578, "Ġpen": 1579, "lc": 1580, "Her": 1581, "Ġmix": 1582, "Ġarm": 1583, "Ġbike": 1584, "Ġtight": 1585, "Ġeverywhere": 1586, "Ġwon": 1587, "Lucy": 1588, "Ġtower": 1589, "Ġthrew": 1590, "Ġhimself": 1591, "Ġfollowed": 1592, "ĠBuddy": 1593, "Ġride": 1594, "man": 1595, "less": 1596, "Ġju": 1597, "Ġje": 1598, "amp": 1599, "Bob": 1600, "ape": 1601, "Ġcomp": 1602, "Ġkey": 1603, "row": 1604, "\".": 1605, "Ġwhite": 1606, "ctor": 1607, "Ġwrong": 1608, "ĠDaisy": 1609, "Ġmakes": 1610, "ĠWhat": 1611, "Ġbreak": 1612, "Ġblack": 1613, "arent": 1614, "ee": 1615, "ner": 1616, "Spot": 1617, "Do": 1618, "Ġdeep": 1619, "thy": 1620, "Ġmusic": 1621, "Ġpol": 1622, "Ġdelic": 1623, "inin": 1624, "cess": 1625, "ued": 1626, "Ġforgot": 1627, "Ġbee": 1628, "Ġparent": 1629, "Ġcastle": 1630, "ves": 1631, "olly": 1632, "Ġem": 1633, "iet": 1634, "Ġwear": 1635, "Ġhit": 1636, "ister": 1637, "oun": 1638, "Ġquiet": 1639, "Ġround": 1640, "ance": 1641, "Ġstu": 1642, "Ġdanced": 1643, "Ġvis": 1644, "ully": 1645, "Ġwants": 1646, "Ġleaf": 1647, "Ġmonster": 1648, "Ġnap": 1649, "ĠJohn": 1650, "Ġunderstand": 1651, "ang": 1652, "Ġbowl": 1653, "os": 1654, "rot": 1655, "ren": 1656, "Ġbor": 1657, "Ġtalked": 1658, "itten": 1659, "Ġdry": 1660, "Ġfaster": 1661, "Ġcookies": 1662, "Ġbrought": 1663, "fully": 1664, "Ġleg": 1665, "ross": 1666, "Ġmum": 1667, "zz": 1668, "anan": 1669, "Ġside": 1670, "ts": 1671, "From": 1672, "Ġsign": 1673, "ĠInside": 1674, "Ġsmart": 1675, "cy": 1676, "Ġrocks": 1677, "Ġsomeone": 1678, "His": 1679, "Ġpoin": 1680, "Ġsec": 1681, "Ġsharing": 1682, "Ġfox": 1683, "Ġwell": 1684, "Ġres": 1685, "Ġrel": 1686, "Ġhappen": 1687, "Ġbutton": 1688, "Ġbranch": 1689, "ĠLila": 1690, "Ġreally": 1691, "Ġfinished": 1692, "ence": 1693, "ards": 1694, "Ġdinner": 1695, "Ġsister": 1696, "Ġflying": 1697, "eddy": 1698, "Ġcontin": 1699, "Ġworried": 1700, "Ġele": 1701, "ĠTo": 1702, "Ġvisit": 1703, "ĠMaybe": 1704, "Ġbeach": 1705, "Ġque": 1706, "Ġsecret": 1707, "Ġel": 1708, "ĠSarah": 1709, "Ġking": 1710, "John": 1711, "gy": 1712, "Ġtoday": 1713, "Ġperfect": 1714, "Ġriver": 1715, "Ġeverything": 1716, "Ġsilly": 1717, "Ġshin": 1718, "ĠJoe": 1719, "Ġdanger": 1720, "ipp": 1721, "Ġchildren": 1722, "Ġgu": 1723, "ĠSoon": 1724, "Ġfield": 1725, "Ġfilled": 1726, "Ġfur": 1727, "Ġelse": 1728, "Ġsmiles": 1729, "Ġwelc": 1730, "ĠAt": 1731, "Ġwish": 1732, "ĠEm": 1733, "While": 1734, "Ġsang": 1735, "Ġgi": 1736, "ze": 1737, "Ġpudd": 1738, "Ġsnack": 1739, "Ġeating": 1740, "Ġrealized": 1741, "Ġpieces": 1742, "Ġpromised": 1743, "ord": 1744, "Ġspr": 1745, "Ġpig": 1746, "Ġfree": 1747, "Ġcontinued": 1748, "Ġbite": 1749, "ead": 1750, "Ġparents": 1751, "Ġcarefully": 1752, "ated": 1753, "itting": 1754, "Ġear": 1755, "Just": 1756, "Ġjar": 1757, "Maybe": 1758, "Ġcow": 1759, "Amy": 1760, "Ġblank": 1761, "Ġdrag": 1762, "stead": 1763, "Ġorange": 1764, "Ġmud": 1765, "Ġcrying": 1766, "Ġblanket": 1767, "Ġenough": 1768, "Ġrolled": 1769, "cket": 1770, "Ġsoup": 1771, "Ġsail": 1772, "Ġpurp": 1773, "imi": 1774, "Ġyes": 1775, "ale": 1776, "Ġdrink": 1777, "Ġsnake": 1778, "ses": 1779, "Ġboun": 1780, "Ġpet": 1781, "Ġcrab": 1782, "Ġthrow": 1783, "Ġlaughing": 1784, "Ġfairy": 1785, "Ġwords": 1786, "Ġamazing": 1787, "Ġbath": 1788, "ich": 1789, "Ġpurple": 1790, "ĠZ": 1791, "Ġwithout": 1792, "ire": 1793, "Ġbottle": 1794, "ĠBilly": 1795, "Ġgift": 1796, "Ġgrandma": 1797, "Fin": 1798, "used": 1799, "ons": 1800, "Ġpast": 1801, "Ġmoney": 1802, "iver": 1803, "fort": 1804, "Ġmail": 1805, "ĠGra": 1806, "Ġbarked": 1807, "Ġwagged": 1808, "Ġatt": 1809, "chool": 1810, "Ġmonkey": 1811, "Ġdoctor": 1812, "unch": 1813, "Ġbrown": 1814, "Ġmoved": 1815, "ises": 1816, "Ġasks": 1817, "Ġgetting": 1818, "Ġclosed": 1819, "Ġwhe": 1820, "Ġwelcome": 1821, "Ġsu": 1822, "Ġcandy": 1823, "Ġschool": 1824, "Ġmorning": 1825, "Ġowner": 1826, "gg": 1827, "Ġlon": 1828, "Ġmother": 1829, "Ġhigher": 1830, "Ġsitting": 1831, "Ġtreasure": 1832, ".âĢĿ": 1833, "Ġsmo": 1834, "!âĢĿ": 1835, "Ġdangerous": 1836, "Ġlonely": 1837, "ĠCh": 1838, "Ġliving": 1839, "Ġapples": 1840, "ush": 1841, "Ġshop": 1842, "ased": 1843, "Ġstrange": 1844, "vel": 1845, "Ġshining": 1846, "Ġroad": 1847, "ere": 1848, "ĠTommy": 1849, "Ġcreat": 1850, "una": 1851, "Ġpaw": 1852, "Ġra": 1853, "ey": 1854, "Ġshoes": 1855, "Ġpre": 1856, "ible": 1857, "Ġ-": 1858, "Ġstre": 1859, "Ġtalking": 1860, "althy": 1861, "Ġcaught": 1862, "Ġegg": 1863, "ol": 1864, "Ġpass": 1865, "me": 1866, "Ġlake": 1867, "Ġruns": 1868, "Ġbuck": 1869, "Ġletter": 1870, "Ġwings": 1871, "Ġchee": 1872, "fish": 1873, "Ġmad": 1874, "Ġfan": 1875, "asket": 1876, "Ġbasket": 1877, "ass": 1878, "Ġdragon": 1879, "app": 1880, "Mommy": 1881, "set": 1882, "cks": 1883, "Ġstone": 1884, "Ġthinks": 1885, "Ġstand": 1886, "Ġdelicious": 1887, "Ġnose": 1888, "Ġpuddle": 1889, "Ġtom": 1890, "ĠBl": 1891, "ĠMimi": 1892, "Ġbelie": 1893, "Ġfarmer": 1894, "Ġsame": 1895, "Ġyears": 1896, "board": 1897, "Ġteddy": 1898, "Ġbat": 1899, "isk": 1900, "itch": 1901, "Ġmine": 1902, "Ġsear": 1903, "Ġcoat": 1904, "ches": 1905, "igh": 1906, "Ġdays": 1907, "Ġgentle": 1908, "Ġfit": 1909, "Ġstart": 1910, "Ġfinally": 1911, "Ġwhist": 1912, "Ġcray": 1913, "igg": 1914, "Ġscream": 1915, "Ġkite": 1916, "Ġpill": 1917, "phant": 1918, "arm": 1919, "Ġvill": 1920, "Ġcho": 1921, "Ġsinging": 1922, "ella": 1923, "sw": 1924, "ined": 1925, "Ġtasty": 1926, "Ġph": 1927, "Ġben": 1928, "Ġtrou": 1929, "Ġshell": 1930, "Ġherself": 1931, "Ġhoped": 1932, "Ġansw": 1933, "Ġwore": 1934, "Ġswings": 1935, "sy": 1936, "Ġhor": 1937, "Ġbelong": 1938, "Please": 1939, "Ġpush": 1940, "Ġbush": 1941, "iskers": 1942, "Ġcarrot": 1943, "Ġarri": 1944, "aughty": 1945, "Ġteach": 1946, "bow": 1947, "ract": 1948, "Ġnaughty": 1949, "Ġelephant": 1950, "Ġdropped": 1951, "Ġshap": 1952, "ier": 1953, "Ġcoll": 1954, "sc": 1955, "Ġteac": 1956, "emy": 1957, "Ġwoke": 1958, "ball": 1959, "Ġpile": 1960, "Ġhiding": 1961, "Ġcour": 1962, "isa": 1963, "erry": 1964, "Ġtouc": 1965, "Ġmin": 1966, "Ġpuppy": 1967, "'ll": 1968, "Ġseem": 1969, "llie": 1970, "Ġtwins": 1971, "ama": 1972, "Ġlunch": 1973, "Ġbow": 1974, "Ġsack": 1975, "Ġbring": 1976, "Ġpers": 1977, "Ġcourse": 1978, "Ġcheered": 1979, "Ġshapes": 1980, "ĠJen": 1981, "Ġgrew": 1982, "fused": 1983, "Ġrope": 1984, "Ġvillage": 1985, "irth": 1986, "irthday": 1987, "Ġjuice": 1988, "ipped": 1989, "Ġrainbow": 1990, "Ġspin": 1991, "OK": 1992, "Ġshook": 1993, "Jack": 1994, "Ġspoon": 1995, "Ġbench": 1996, "Ġstreet": 1997, "Ġfence": 1998, "Ġcute": 1999, "ĠFred": 2000, "Ġrob": 2001, "Ġnut": 2002, "Ġcheese": 2003, "Ġprob": 2004, "Ġtouched": 2005, "idge": 2006, "col": 2007, "Ġjoy": 2008, "ĠWhiskers": 2009, "Ġarrived": 2010, "Ġseed": 2011, "Ġwar": 2012, "Ġteacher": 2013, "Ġcorn": 2014, "Good": 2015, "Ġforever": 2016, "Ġable": 2017, "Ġbell": 2018, "Ġfew": 2019, "Ġcarry": 2020, "Ġmost": 2021, "Ġplane": 2022, "ĠBlue": 2023, "lem": 2024, "Ġeas": 2025, "Ġsounds": 2026, "lla": 2027, "Ġdes": 2028, "Ġspo": 2029, "Ġproblem": 2030, "Ġbirthday": 2031, "Ġpower": 2032, "Ġinc": 2033, "umb": 2034, "br": 2035, "ĊĠ": 2036, "Ġbugs": 2037, "ilk": 2038, "Ġwonderful": 2039, "Ġdolls": 2040, "Ġbusy": 2041, "ato": 2042, "irp": 2043, "eb": 2044, "Ġwra": 2045, "Ġpromise": 2046, "ĠThank": 2047, "Ġfeels": 2048, "ian": 2049, "ĠEmma": 2050, "eter": 2051, "Ġbread": 2052, "Ġneck": 2053, "Finally": 2054, "Ġmilk": 2055, "Ġrobot": 2056, "Ġrec": 2057, "Ġshy": 2058, "ountain": 2059, "Ġkiss": 2060, "irt": 2061, "Ġheart": 2062, "Ġband": 2063, "Ġcave": 2064, "Ġpocket": 2065, "ub": 2066, "Ġhelpful": 2067, "gly": 2068, "Ġslowly": 2069, "Ġbelieve": 2070, "Ġshake": 2071, "umpy": 2072, "eared": 2073, "Ġpatient": 2074, "Ġpop": 2075, "Ġob": 2076, "arp": 2077, "Ġlive": 2078, "Ġstorm": 2079, "Ġholding": 2080, "Ġugly": 2081, "Ġtowards": 2082, "Ġupset": 2083, "Ġturt": 2084, "Ġshr": 2085, "adow": 2086, "Ġcover": 2087, "Ġkitten": 2088, "ost": 2089, "ĠRemy": 2090, "Ġsharp": 2091, "Ġdisapp": 2092, "Ġstories": 2093, "Ġsuc": 2094, "Ġhoney": 2095, "ove": 2096, "ĠBella": 2097, "read": 2098, "Ġnoises": 2099, "ĠLe": 2100, "Ġcir": 2101, "Ġballs": 2102, "Ġspark": 2103, "Ġgray": 2104, "Ġdist": 2105, "Ġdirt": 2106, "oggy": 2107, "Ġlate": 2108, "Ġdriver": 2109, "Ġseat": 2110, "Ġbucket": 2111, "Ġmeet": 2112, "Ġyoung": 2113, "Ġamazed": 2114, "Ġturtle": 2115, "alm": 2116, "Ġspid": 2117, "Ġtreats": 2118, "Ġmagical": 2119, "unt": 2120, "ator": 2121, "Ġglow": 2122, "Ġseek": 2123, "Ġzoom": 2124, "Ġlem": 2125, "Ġsandw": 2126, "fortable": 2127, "umber": 2128, "Ġtrip": 2129, "Ġmist": 2130, "ourn": 2131, "Ġsplas": 2132, "Ġmark": 2133, "Ġjourn": 2134, "Ġfold": 2135, "Ġmach": 2136, "Ġpuzz": 2137, "Ġpart": 2138, "ling": 2139, "Ġhorse": 2140, "Ġorgan": 2141, "Ġwild": 2142, "Ġprincess": 2143, "pping": 2144, "oose": 2145, "Ġcookie": 2146, "Sure": 2147, "ens": 2148, "Ġhugs": 2149, "ĠMark": 2150, "Ġtaking": 2151, "ung": 2152, "Ġwheel": 2153, "epend": 2154, "Ġcloth": 2155, "ĠLisa": 2156, "Ġsug": 2157, "Ġinstead": 2158, "Ġbubb": 2159, "Ġstring": 2160, "Ġnet": 2161, "Ġdrove": 2162, "iling": 2163, "Ġrude": 2164, "Ġhuge": 2165, "ĠJim": 2166, "Ġcoin": 2167, "Ġstars": 2168, "Ġfighting": 2169, "Be": 2170, "Ġspicy": 2171, "Ġlucky": 2172, "Of": 2173, "Ġcraw": 2174, "Hey": 2175, "Ġbone": 2176, "Ġinv": 2177, "ĠGrandma": 2178, "ors": 2179, "not": 2180, "Ġca": 2181, "pper": 2182, "Ġforget": 2183, "up": 2184, "Ġdi": 2185, "aur": 2186, "Ġsal": 2187, "ĠFinally": 2188, "Ġcannot": 2189, "Ġwhistle": 2190, "Ġcard": 2191, "Ġsick": 2192, "Ġpath": 2193, "Ġcou": 2194, "Ġspider": 2195, "Ġwide": 2196, "Lila": 2197, "Ġfoot": 2198, "Ġsnowman": 2199, "Ġsongs": 2200, "Ġlife": 2201, "Ġpillow": 2202, "ize": 2203, "ular": 2204, "ĠJust": 2205, "Later": 2206, "est": 2207, "ĠAnn": 2208, "ert": 2209, "Ġfixed": 2210, "Ġgiant": 2211, "oph": 2212, "rill": 2213, "Ġnod": 2214, "Ġboss": 2215, "Ġlast": 2216, "Ġcomes": 2217, "Ġjoke": 2218, "Ġmoon": 2219, "Ġtaste": 2220, "den": 2221, "Ġmachine": 2222, "Ġgrumpy": 2223, "Ġwave": 2224, "Ġthin": 2225, "Ġdrive": 2226, "Ġcart": 2227, "Ġash": 2228, "Ġser": 2229, "Ġgrab": 2230, "Ġpeace": 2231, "lower": 2232, "Ġdaddy": 2233, "ĠOn": 2234, "ĠLeo": 2235, "ery": 2236, "Ġsel": 2237, "Ġshelf": 2238, "Ġhidden": 2239, "erest": 2240, "Ġsuddenly": 2241, "Ġwasn": 2242, "Ġwrite": 2243, "Ġlanded": 2244, "Ġconfused": 2245, "Ġchange": 2246, "Ġworm": 2247, "Ġinterest": 2248, "Ġchased": 2249, "oop": 2250, "Ġfruits": 2251, "Ġsour": 2252, "ity": 2253, "Ġmyster": 2254, "Ġbark": 2255, "Ġrad": 2256, "Ġsmooth": 2257, "ĠCome": 2258, "Ġadventures": 2259, "Ġval": 2260, "Ġstepped": 2261, "Ġfle": 2262, "ope": 2263, "Ġoven": 2264, "Ġtakes": 2265, "Ġmissed": 2266, "Ġselfish": 2267, "kin": 2268, "Ġsheep": 2269, "Ġmessy": 2270, "To": 2271, "Ġacross": 2272, "Ġent": 2273, "Ġexp": 2274, "to": 2275, "Ġce": 2276, "Ġlater": 2277, "elly": 2278, "ĠN": 2279, "ife": 2280, "Ġsticks": 2281, "Ġtie": 2282, "St": 2283, "ever": 2284, "ĠLuna": 2285, "Ġstep": 2286, "Ġbought": 2287, "Ġdrew": 2288, "Ġtea": 2289, "pect": 2290, "irpy": 2291, "box": 2292, "?âĢĿ": 2293, "Ġwash": 2294, "Ġlay": 2295, "Ġpour": 2296, "Ġbeak": 2297, "ose": 2298, "Ġjog": 2299, "Ġgrate": 2300, "Ġducks": 2301, "Ġspe": 2302, "Ġlegs": 2303, "ugg": 2304, "Ġfil": 2305, "ĠBu": 2306, "Ġemp": 2307, "mer": 2308, "Ġhope": 2309, "Ġempty": 2310, "Ġslid": 2311, "Ġfeather": 2312, "Ġsleepy": 2313, "Ġdrum": 2314, "amed": 2315, "ars": 2316, "eth": 2317, "Ġzoo": 2318, "Ġpan": 2319, "Ġphone": 2320, "Ġgrateful": 2321, "Ġfing": 2322, "ions": 2323, "Ġlemon": 2324, "let": 2325, "ĠCat": 2326, "Ġclever": 2327, "ĠMolly": 2328, "Ġsmelly": 2329, "Ġimag": 2330, "Ġsplash": 2331, "Ġinteresting": 2332, "ĠJill": 2333, "Ġsave": 2334, "Ġchick": 2335, "Ġcalm": 2336, "Ġmed": 2337, "Ġwatching": 2338, "Soon": 2339, "izzy": 2340, "izz": 2341, "Ġplate": 2342, "Ġign": 2343, "yard": 2344, "Ġclouds": 2345, "Ġbanan": 2346, "Ġline": 2347, "Ġfaces": 2348, "Ġba": 2349, "Ġact": 2350, "Ġlift": 2351, "Ġthough": 2352, "Ġwolf": 2353, "Ġbackyard": 2354, "wel": 2355, "Ġseemed": 2356, "Ġdogs": 2357, "Ġspray": 2358, "Come": 2359, "Ġprot": 2360, "Ġwhole": 2361, "Ġmot": 2362, "Ġfancy": 2363, "ĠDaddy": 2364, "Ġquest": 2365, "Ġarms": 2366, "Ġpuzzle": 2367, "Ġhealthy": 2368, "Ġsupp": 2369, "ward": 2370, "Ġfinish": 2371, "erly": 2372, "Ġalong": 2373, "llo": 2374, "Ġrocket": 2375, "Ġexplain": 2376, "dge": 2377, "Ġeasy": 2378, "Ġjewel": 2379, "ont": 2380, "Ġpract": 2381, "Ġjelly": 2382, "ĠChirpy": 2383, "Ġtid": 2384, "Ġfake": 2385, "Ġcrayons": 2386, "Ġwondered": 2387, "Ġmaybe": 2388, "Ġscar": 2389, "Ġship": 2390, "Ġnothing": 2391, "onest": 2392, "Ġemb": 2393, "iger": 2394, "Ġpool": 2395, "Ġlonger": 2396, "Ġanyone": 2397, "ĠBe": 2398, "ĠJerry": 2399, "ually": 2400, "Ġfront": 2401, "Ġworking": 2402, "Ġgives": 2403, "irr": 2404, "Ġpack": 2405, "Ġsuch": 2406, "ĠBunny": 2407, "ocked": 2408, "ment": 2409, "Ġbossy": 2410, "ĠDoggy": 2411, "Ġtrouble": 2412, "Ġsmelled": 2413, "Ġsaved": 2414, "Ġpin": 2415, "Ġring": 2416, "rass": 2417, "Ġneigh": 2418, "arrass": 2419, "iting": 2420, "Ġhonest": 2421, "Ġav": 2422, "arge": 2423, "Ġembarrass": 2424, "Ġvan": 2425, "Ġforgive": 2426, "Ġtidy": 2427, "Ġweak": 2428, "urse": 2429, "Ġputs": 2430, "unk": 2431, "Ġkick": 2432, "Ġshirt": 2433, "ĠWith": 2434, "Ġmind": 2435, "ĠOllie": 2436, "Ġneighb": 2437, "Ġplants": 2438, "Ġsol": 2439, "ĠMomo": 2440, "Ġgently": 2441, "Ġcozy": 2442, "orrow": 2443, "ming": 2444, "Ġexplor": 2445, "sp": 2446, "Ġmistake": 2447, "Ġyog": 2448, "oc": 2449, "oomy": 2450, "Ġpointed": 2451, "Ġlad": 2452, "Ġaf": 2453, "Ġstood": 2454, "ork": 2455, "Ġonto": 2456, "Ġwaiting": 2457, "Ġjumping": 2458, "Ġprince": 2459, "Ġcross": 2460, "Ġlock": 2461, "Ġcheer": 2462, "Ġqueen": 2463, "ĠWhy": 2464, "ĠMary": 2465, "Ġwing": 2466, "ones": 2467, "we": 2468, "Ġlarge": 2469, "Ġlovely": 2470, "ult": 2471, "Ġsur": 2472, "Ġret": 2473, "And": 2474, "Ġdeer": 2475, "Ġchew": 2476, "Ġcouch": 2477, "Ġbal": 2478, "aughter": 2479, "Ġstret": 2480, "era": 2481, "ĠTheir": 2482, "Ġplaces": 2483, "ĠMy": 2484, "Ġladder": 2485, "oof": 2486, "Ġreturn": 2487, "raid": 2488, "Ġants": 2489, "Ġdish": 2490, "Ġafraid": 2491, "Ġcleaned": 2492, "Ġtomorrow": 2493, "Ġbuilding": 2494, "Ġsandwich": 2495, "Ġperson": 2496, "Sally": 2497, "ned": 2498, "Ġpretended": 2499, "Ġbounce": 2500, "Ġwip": 2501, "gest": 2502, "Ġmatch": 2503, "Ġrich": 2504, "uce": 2505, "Ġpizz": 2506, "Ġgather": 2507, "Ġsearch": 2508, "Ġboring": 2509, "oman": 2510, "ĠSomet": 2511, "Ġteeth": 2512, "Ġhum": 2513, "Kitty": 2514, "My": 2515, "aced": 2516, "Ġdaughter": 2517, "Ġwoman": 2518, "Ġscarf": 2519, "Ġgoes": 2520, "ĠTogether": 2521, "Ġlaw": 2522, "Ġstra": 2523, "Ġswimming": 2524, "Ġfurry": 2525, "Ġsplashed": 2526, "Ġpri": 2527, "Ġloves": 2528, "Ġtrue": 2529, "Ġscreamed": 2530, "Ġlazy": 2531, "Ġgen": 2532, "Ġanswer": 2533, "Ġnumber": 2534, "Ġeag": 2535, "Ġashamed": 2536, "Ġpizza": 2537, "aw": 2538, "Ġappeared": 2539, "Ġfear": 2540, "Ġnearby": 2541, "Ġpowerful": 2542, "Ġflag": 2543, "ĠSt": 2544, "Ġhang": 2545, "vous": 2546, "Ġclown": 2547, "ek": 2548, "Ġchase": 2549, "Ġmotor": 2550, "Ġwand": 2551, "ĠTV": 2552, "Ġrub": 2553, "Ġsuccess": 2554, "Ġchocol": 2555, "ĠIf": 2556, "Ġcreative": 2557, "Ġtrust": 2558, "Ġwearing": 2559, "Ġnoisy": 2560, "Ġmatter": 2561, "pa": 2562, "Ġdig": 2563, "Ġhello": 2564, "Ġner": 2565, "Ġtool": 2566, "Ġsaf": 2567, "ĠBird": 2568, "ado": 2569, "Ġnervous": 2570, "elp": 2571, "Ġtest": 2572, "Ġsmiling": 2573, "Ġsold": 2574, "icked": 2575, "oppy": 2576, "osaur": 2577, "Ġcircle": 2578, "mb": 2579, "Ġmap": 2580, "Ġdrank": 2581, "Ġclass": 2582, "Ġtries": 2583, "Ġchocolate": 2584, "ĠPlease": 2585, "Ġimpress": 2586, "Ġknee": 2587, "Ġgener": 2588, "Ġdinosaur": 2589, "Ġpolite": 2590, "Ġmirr": 2591, "ĠBobby": 2592, "ĠTiny": 2593, "Ġballoons": 2594, "Ġgold": 2595, "Ġrare": 2596, "Ġprotect": 2597, "Ġcand": 2598, "Stop": 2599, "Ġcarried": 2600, "ĠGo": 2601, "ensive": 2602, "Ġap": 2603, "Ġshadow": 2604, "Ġmirror": 2605, "ĠDon": 2606, "Ġbald": 2607, "Ġgun": 2608, "ina": 2609, "Ġexpensive": 2610, "Ġreg": 2611, "iff": 2612, "Ġmysterious": 2613, "ĠSp": 2614, "Ġpump": 2615, "Ġnote": 2616, "Ġhero": 2617, "Ġmarch": 2618, "Ġhar": 2619, "arl": 2620, "Ġicy": 2621, "Ġrespect": 2622, "Ġweird": 2623, "Ġsnee": 2624, "Ġcri": 2625, "Ġgate": 2626, "Ġsoap": 2627, "rag": 2628, "ute": 2629, "issors": 2630, "Ġthese": 2631, "Ġpoor": 2632, "Ġtowel": 2633, "Ġwhale": 2634, "Ġfeet": 2635, "Ġtape": 2636, "Ġdizzy": 2637, "itter": 2638, "Ġgenerous": 2639, "ndpa": 2640, "Ġpres": 2641, "ĠBenny": 2642, "nic": 2643, "Ġdisco": 2644, "Help": 2645, "ventually": 2646, "Ġpicnic": 2647, "Ġmic": 2648, "Ġlead": 2649, "Ġsque": 2650, "Ġembarrassed": 2651, "Ġjourney": 2652, "Ġsugar": 2653, "isp": 2654, "scape": 2655, "Ġboot": 2656, "Ġtent": 2657, "Ġpeaceful": 2658, "Ġfat": 2659, "ĠBear": 2660, "Ġscissors": 2661, "Ġtasted": 2662, "Ġyelled": 2663, "Tommy": 2664, "Ġtick": 2665, "Ġmel": 2666, "Ġbrush": 2667, "Ġdancing": 2668, "ness": 2669, "Ġglue": 2670, "Ġhur": 2671, "Ġrough": 2672, "Ġclap": 2673, "Ġbridge": 2674, "ote": 2675, "Ġdecor": 2676, "Ġcloset": 2677, "Ġcrown": 2678, "Ġstir": 2679, "ual": 2680, "imp": 2681, "Ġprint": 2682, "ĠSometimes": 2683, "owed": 2684, "airs": 2685, "ĠHow": 2686, "ume": 2687, "Ġcap": 2688, "Ġlamp": 2689, "Ġvase": 2690, "Ġscare": 2691, "lebr": 2692, "Ġrelie": 2693, "lves": 2694, "any": 2695, "Ġeld": 2696, "Ġtele": 2697, "Ġcelebr": 2698, "Ġgigg": 2699, "Ġwhisp": 2700, "Ġlog": 2701, "Ġsco": 2702, "Ġblow": 2703, "Ġpainted": 2704, "ĠDucky": 2705, "Ġpay": 2706, "erries": 2707, "Ġwis": 2708, "Ġberries": 2709, "Ġmixed": 2710, "Ġspread": 2711, "Ġwouldn": 2712, "Ġcage": 2713, "Ġbake": 2714, "rob": 2715, "getable": 2716, "Ġmountain": 2717, "Ġadm": 2718, "Ġdrawing": 2719, "Ġbecome": 2720, "Ġfamous": 2721, "Ġknocked": 2722, "Ġbean": 2723, "Ġnorm": 2724, "Ġvegetable": 2725, "asp": 2726, "Ġkicked": 2727, "ustr": 2728, "Ġshark": 2729, "ser": 2730, "Ġincred": 2731, "Ġlose": 2732, "Ġnormal": 2733, "Ġwrap": 2734, "ced": 2735, "Ġgroup": 2736, "Ġthick": 2737, "Ġ3": 2738, "Ġfine": 2739, "Ġglass": 2740, "Ġignor": 2741, "Ġclock": 2742, "Ġteam": 2743, "Ġelderly": 2744, "Ġclear": 2745, "Ġcorner": 2746, "Ġfrustr": 2747, "Ġmighty": 2748, "robe": 2749, "Ġcone": 2750, "Ġincredible": 2751, "ĠBr": 2752, "ighed": 2753, "Dad": 2754, "Ġmoms": 2755, "Ġbalance": 2756, "Ġsock": 2757, "Ġspace": 2758, "Ġjam": 2759, "ragile": 2760, "Ġfright": 2761, "Ġorganized": 2762, "Ġbranches": 2763, "Ġroar": 2764, "port": 2765, "Ġsword": 2766, "alous": 2767, "ĠMama": 2768, "Ġguess": 2769, "Ġfool": 2770, "Ġsell": 2771, "Ġfeed": 2772, "ĠSome": 2773, "Ġwhich": 2774, "Ġhorn": 2775, "Ġpresent": 2776, "Ġjealous": 2777, "Ġyarn": 2778, "ony": 2779, "Ġfragile": 2780, "Ġburn": 2781, "Ġunderstood": 2782, "Ġmis": 2783, "Ġstubb": 2784, "Ġter": 2785, "Ġfrustrated": 2786, "Where": 2787, "ray": 2788, "Ġhose": 2789, "cient": 2790, "anged": 2791, "Ġspent": 2792, "Ġshoe": 2793, "Ġtaught": 2794, "Ġstubborn": 2795, "Ġtwist": 2796, "Ġcreature": 2797, "Ġchest": 2798, "Ġspoiled": 2799, "Ġrelieved": 2800, "Ġancient": 2801, "ique": 2802, "Ġwake": 2803, "Ġfier": 2804, "Ġpray": 2805, "Ġfierce": 2806, "Ġeggs": 2807, "Ġcab": 2808, "Ġterri": 2809, "Ġbarn": 2810, "Ġpumpkin": 2811, "Ġcomfortable": 2812, "Ġord": 2813, "ym": 2814, "Ġfrightened": 2815, "orry": 2816, "Ġtoug": 2817, "Ġunique": 2818, "Ġmeasure": 2819, "Ġgoat": 2820, "Ġwagon": 2821, "Ġunus": 2822, "Ġbreath": 2823, "Ġfoolish": 2824, "Ġuseful": 2825, "Ġexploring": 2826, "dle": 2827, "Ġstraw": 2828, "Ġunusual": 2829, "Ġdug": 2830, "Ġclay": 2831, "Ġdiscover": 2832, "Ġtomato": 2833, "ĠPe": 2834, "Ġdead": 2835, "Ġfinding": 2836, "Ġpolice": 2837, "Ġwrote": 2838, "Ġclum": 2839, "Ġexam": 2840, "lace": 2841, "Ġwaves": 2842, "Ġsquare": 2843, "Ġhears": 2844, "Ġcabin": 2845, "Ġtells": 2846, "Ġnecklace": 2847, "Ġdull": 2848, "Ġclumsy": 2849, "Ġtough": 2850, "Ġbubbles": 2851, "Ġnosy": 2852, "kn": 2853, "Ġsearched": 2854, "Together": 2855, "Ġwashed": 2856, "Ġbathroom": 2857, "Ġpaws": 2858, "bby": 2859, "ond": 2860, "unn": 2861, "Ġboard": 2862, "fic": 2863, "known": 2864, "Ġasking": 2865, "Ġcrazy": 2866, "Ġthankful": 2867, "Ġsunf": 2868, "Ġbitter": 2869, "yal": 2870, "Ġpir": 2871, "berry": 2872, "alk": 2873, "Ġind": 2874, "Ġdiffic": 2875, "Ġrose": 2876, "cil": 2877, "Ġswan": 2878, "Ġbloom": 2879, "Ġunknown": 2880, "ĠElla": 2881, "Ġcovered": 2882, "Ġdifficult": 2883, "Ġadd": 2884, "Ġpencil": 2885, "Ġfinger": 2886, "Ġham": 2887, "Ġhoop": 2888, "Ġjet": 2889, "Ġwitch": 2890, "Ġdrop": 2891, "Me": 2892, "Ġ'": 2893, "Ġchicken": 2894, "Ġgloomy": 2895, "apped": 2896, "Ġloyal": 2897, "als": 2898, "Here": 2899, "Ġwealthy": 2900, "com": 2901, "light": 2902, "Ġunl": 2903, "Ġcats": 2904, "Ġending": 2905, "Ġguit": 2906, "bled": 2907, "shine": 2908, "Ġdove": 2909, "Ġjoined": 2910, "Ġcher": 2911, "anut": 2912, "Ġmov": 2913, "Ġterrible": 2914, "Ġyours": 2915, "iant": 2916, "ĠU": 2917, "ĠRex": 2918, "Ġsalad": 2919, "ĠAndy": 2920, "Ġnuts": 2921, "Ġrat": 2922, "ground": 2923, "Ġtiger": 2924, "Ġpotato": 2925, "Ġmask": 2926, "xible": 2927, "selves": 2928, "Ġvalue": 2929, "Ġchanged": 2930, "Ġmoving": 2931, "Ġexciting": 2932, "ormous": 2933, "ĠMany": 2934, "Ġbody": 2935, "ĠTr": 2936, "Ġtoast": 2937, "Ġrecord": 2938, "erp": 2939, "Ġzip": 2940, "Ġdisg": 2941, "Ġcheap": 2942, "Ġguitar": 2943, "irsty": 2944, "Ġknowing": 2945, "Ġadventur": 2946, "Ġyourself": 2947, "Ġenormous": 2948, "Ġhairy": 2949, "Every": 2950, "Ġshoot": 2951, "ĠBrown": 2952, "Ġbored": 2953, "Ġpepper": 2954, "Ġremind": 2955, "ory": 2956, "land": 2957, "Ġacorn": 2958, "Ġadventurous": 2959, "Ġsunshine": 2960, "Ġsmaller": 2961, "Ġstuff": 2962, "Ġhats": 2963, "Ġsolve": 2964, "ĠJimmy": 2965, "Ġflexible": 2966, "Ġcost": 2967, "rilliant": 2968, "Ġknife": 2969, "Ġperform": 2970, "Ġsnacks": 2971, "Ġnods": 2972, "Ġshore": 2973, "Ġbrilliant": 2974, "Ġthirsty": 2975, "Ġdelicate": 2976, "Ġfrown": 2977, "Ġdisgust": 2978, "Ġcollect": 2979, "Ġstri": 2980, "Ġseeds": 2981, "Ġcounted": 2982, "Ġasleep": 2983, "Ġbanana": 2984, "reen": 2985, "Ġmailbox": 2986, "Ġdough": 2987, "iness": 2988, "Ġtrick": 2989, "Ġneighbor": 2990, "ungle": 2991, "Ġheal": 2992, "live": 2993, "Who": 2994, "Ġstage": 2995, "ident": 2996, "Ġmarket": 2997, "Ġcube": 2998, "Ġstat": 2999, "Ġjungle": 3000, "Ġsquee": 3001, "mbre": 3002, "Ġexplained": 3003, "ates": 3004, "Ġumbre": 3005, "Ġdisgusting": 3006, "Jim": 3007, "fted": 3008, "Ġlab": 3009, "Ġjolly": 3010, "Ġflash": 3011, "und": 3012, "Ġfridge": 3013, "inal": 3014, "pid": 3015, "ilt": 3016, "Ġcrane": 3017, "corn": 3018, "Ġsuit": 3019, "Ġrh": 3020, "iddle": 3021, "Ġsunflower": 3022, "Ġtimes": 3023, "ĠAl": 3024, "erpill": 3025, "Ġcaterpill": 3026, "Ġrelax": 3027, "Ġshiver": 3028, "Ġfour": 3029, "Ġisland": 3030, "iginal": 3031, "Ġharm": 3032, "ict": 3033, "ĠWhile": 3034, "ying": 3035, "Ġstupid": 3036, "Ġmedic": 3037, "ĠInstead": 3038, "Ġcomb": 3039, "Ġgoose": 3040, "Ġcro": 3041, "edient": 3042, "ĠWill": 3043, "Ġstove": 3044, "If": 3045, "Are": 3046, "Ġindepend": 3047, "Mum": 3048, "most": 3049, "Ġgem": 3050, "Ġbatter": 3051, "Ġsighed": 3052, "Ġvegetables": 3053, "Ġstones": 3054, "pes": 3055, "Ġshine": 3056, "How": 3057, "Ġmedicine": 3058, "Ġdepend": 3059, "Ġrug": 3060, "ĠYour": 3061, "Ġcareless": 3062, "Ġoriginal": 3063, "Ġstamp": 3064, "Ġgar": 3065, "Ġcries": 3066, "Inside": 3067, "gu": 3068, "Ġcarrots": 3069, "Ġscr": 3070, "Ġsuccessful": 3071, "Ġsauce": 3072, "Ġjeep": 3073, "Ġpopcorn": 3074, "Ġmeal": 3075, "Ġobedient": 3076, "Ġalmost": 3077, "Ġmiddle": 3078, "Ġmagn": 3079, "Ġstudy": 3080, "Ġindependent": 3081, "Ġfearful": 3082, "Ġjack": 3083, "met": 3084, "inky": 3085, "Sorry": 3086, "ĠSammy": 3087, "Ġescape": 3088, "Ġcaterpillar": 3089, "Ġserious": 3090, "Ġpeanut": 3091, "Ġbedroom": 3092, "Ġeager": 3093, "aken": 3094, "Ġgets": 3095, "Ġparrot": 3096, "Ġstatue": 3097, "Ġhelmet": 3098, "Ġpebb": 3099, "ĠNo": 3100, "Ġfountain": 3101, "Ġraven": 3102, "Ġang": 3103, "Ġpasta": 3104, "Ġumbrella": 3105, "Ġcompet": 3106, "There": 3107, "Ġjacket": 3108, "Ġbelonged": 3109, "Ġdest": 3110, "Ġfilthy": 3111, "Ġdesign": 3112, "Ġborrow": 3113, "Ġcam": 3114, "erable": 3115, "Ġhouses": 3116, "Ġprize": 3117, "Ġhay": 3118, "Ġbrace": 3119, "Ġstanding": 3120, "Ġmiserable": 3121, "Ġraced": 3122, "Ġtaken": 3123, "ages": 3124, "Ġfork": 3125, "Ġcrayon": 3126, "Ġpainting": 3127, "io": 3128, "Ġtriang": 3129, "Ġimpressive": 3130, "Ġchoose": 3131, "Ġfig": 3132, "Ġtied": 3133, "iable": 3134, "Ġspotted": 3135, "Ġlifted": 3136, "Ġslipped": 3137, "ours": 3138, "Ġtank": 3139, "Ġspring": 3140, "Ġthoughtful": 3141, "Ġdependable": 3142, "Ġsteal": 3143, "Ġgarage": 3144, "enny": 3145, "Ġbuilt": 3146, "Ġmush": 3147, "Ġer": 3148, "ipe": 3149, "Ġmole": 3150, "Ġcrawled": 3151, "Ġscale": 3152, "Ġboats": 3153, "Ġpian": 3154, "Ġpant": 3155, "Ġhammer": 3156, "Ġbottom": 3157, "lph": 3158, "Ġcheerful": 3159, "Ġusing": 3160, "Ġsmoke": 3161, "Ġpicks": 3162, "Ġmoder": 3163, "berries": 3164, "Ġshows": 3165, "rn": 3166, "Ġpiano": 3167, "Ġmagnet": 3168, "dile": 3169, "codile": 3170, "Ġhurts": 3171, "inary": 3172, "Ġref": 3173, "Ġcrack": 3174, "Ġeng": 3175, "Ġaunt": 3176, "Ġmelon": 3177, "Ġwaff": 3178, "Ġmodern": 3179, "Ġdolph": 3180, "unnel": 3181, "cream": 3182, "pack": 3183, "Ġtunnel": 3184, "oin": 3185, "Ġarrow": 3186, "Ġreliable": 3187, "Ġhopping": 3188, "Ġmushroom": 3189, "Ġjug": 3190, "Timmy": 3191, "Ġsquash": 3192, "Ġgum": 3193, "Ġsink": 3194, "Ġmovie": 3195, "Ġtax": 3196, "Ġflute": 3197, "Ġbeet": 3198, "Ġlean": 3199, "Their": 3200, "iv": 3201, "Ġpopular": 3202, "opter": 3203, "icopter": 3204, "Ġcryst": 3205, "Ġones": 3206, "Ġsil": 3207, "Ġcompetit": 3208, "Ġhelicopter": 3209, "aser": 3210, "Ġneeds": 3211, "ipop": 3212, "llipop": 3213, "Ġcrocodile": 3214, "Ġliz": 3215, "Molly": 3216, "Ġpress": 3217, "Ġtroubled": 3218, "Ġpige": 3219, "Ġlocked": 3220, "Ġtricks": 3221, "Ġlollipop": 3222, "Ġplayful": 3223, "Ġhumble": 3224, "Ġtaxi": 3225, "Ġkissed": 3226, "Ġlow": 3227, "appy": 3228, "comfortable": 3229, "amond": 3230, "Ġuncomfortable": 3231, "Ġrid": 3232, "host": 3233, "Ġwander": 3234, "atch": 3235, "Ġangel": 3236, "edy": 3237, "cles": 3238, "Ġtorn": 3239, "Ġgrace": 3240, "Ġanx": 3241, "Ġwrapped": 3242, "Ġmuff": 3243, "Ġtwig": 3244, "Ġpants": 3245, "Ġdisappoin": 3246, "ĠSn": 3247, "Ġhelps": 3248, "Ġdiamond": 3249, "Ġcamera": 3250, "atter": 3251, "oto": 3252, "Ġanxious": 3253, "Ġghost": 3254, "Ġtears": 3255, "Ġruined": 3256, "cident": 3257, "ĠJenny": 3258, "ilty": 3259, "Ġquar": 3260, "aff": 3261, "ĠEven": 3262, "Ġfis": 3263, "opl": 3264, "Ġbelt": 3265, "eropl": 3266, "Ġenv": 3267, "Ġguilty": 3268, "Ġbull": 3269, "Ġaeropl": 3270, "Ġhelpless": 3271, "Ġhappiness": 3272, "Ġlizard": 3273, "Ġboys": 3274, "cut": 3275, "ext": 3276, "Ġcere": 3277, "Ġwalks": 3278, "cean": 3279, "Ġpassed": 3280, "Ġmeant": 3281, "Ġocean": 3282, "Ġfluffy": 3283, "Ġwire": 3284, "Ġnail": 3285, "Ġbracelet": 3286, "Ġdeaf": 3287, "zed": 3288, "Ġstretch": 3289, "Ġcandle": 3290, "Ġcact": 3291, "tt": 3292, "Ġbeetle": 3293, "Ġmop": 3294, "Ġharmless": 3295, "umpet": 3296, "Ġordinary": 3297, "Ġanswered": 3298, "Ġcollar": 3299, "Ġcop": 3300, "Ġbees": 3301, "Ġtire": 3302, "Ġshape": 3303, "Ġquarrel": 3304, "Ġradio": 3305, "Ġflashlight": 3306, "Ġcrystal": 3307, "Ġharder": 3308, "Ġpoured": 3309, "Ġtrumpet": 3310, "Ġengine": 3311, "Mama": 3312, "Ġpersist": 3313, "Ġhunt": 3314, "Ġtooth": 3315, "Ġcereal": 3316, "Ġinvited": 3317, "Ġcomput": 3318, "Ġtag": 3319, "Ġoffice": 3320, "Ġmelt": 3321, "Ġspill": 3322, "Ġcharm": 3323, "coa": 3324, "Ġlit": 3325, "Ġscoot": 3326, "Ġcomet": 3327, "Ġtriangle": 3328, "ief": 3329, "Ġmug": 3330, "Ġrep": 3331, "ube": 3332, "Ġyogurt": 3333, "Ġspend": 3334, "Ġcompass": 3335, "Ġaccident": 3336, "Ġshade": 3337, "hett": 3338, "aghett": 3339, "aghetti": 3340, "Ġdisappointed": 3341, "Ġlicked": 3342, "Ġcactus": 3343, "Ġpale": 3344, "Ġcush": 3345, "Ġfigure": 3346, "Ġregular": 3347, "Ġgiving": 3348, "Ġavoc": 3349, "Ġpro": 3350, "Ġsheet": 3351, "Ġwhispered": 3352, "aze": 3353, "uth": 3354, "ellig": 3355, "Ġcreate": 3356, "Ġbarber": 3357, "Ġintellig": 3358, "Ġpipe": 3359, "Ġrode": 3360, "Ġroof": 3361, "Jane": 3362, "Ġthread": 3363, "ither": 3364, "Ġvi": 3365, "Ġload": 3366, "Ġlibr": 3367, "Ġgifted": 3368, "ccol": 3369, "Ġpracticed": 3370, "Ġdelight": 3371, "ccoli": 3372, "Ġharsh": 3373, "asses": 3374, "Ġpow": 3375, "Ġdust": 3376, "ĠTrue": 3377, "Ġbicy": 3378, "azz": 3379, "Ġspaghetti": 3380, "Ġcompassion": 3381, "Ġsailed": 3382, "urkey": 3383, "ubby": 3384, "Ġforward": 3385, "Ġpersistent": 3386, "Ġmitten": 3387, "Ġcocoa": 3388, "Ġenvel": 3389, "Ġquestions": 3390, "Ġcomputer": 3391, "Ġcoo": 3392, "Ġfeathers": 3393, "hip": 3394, "Ġspeed": 3395, "Ġglove": 3396, "ging": 3397, "Bobo": 3398, "Ġrice": 3399, "Ġshrimp": 3400, "Ġdesk": 3401, "Ġstream": 3402, "Ġinse": 3403, "Ġpigeon": 3404, "Ġcharming": 3405, "Ġears": 3406, "Ġcarp": 3407, "lcan": 3408, "Ġraft": 3409, "Ġenvious": 3410, "Ġknot": 3411, "Ġturkey": 3412, "Ġstronger": 3413, "omes": 3414, "Ġcoins": 3415, "Ġtap": 3416, "lcano": 3417, "weet": 3418, "Ġtrap": 3419, "umbers": 3420, "Ġaeroplane": 3421, "Ġtrunk": 3422, "Ġwheat": 3423, "Ġboxes": 3424, "Ġchubby": 3425, "Ġcarpet": 3426, "Ġrestless": 3427, "Ġintelligent": 3428, "Ġtube": 3429, "Ġspun": 3430, "Ġdreams": 3431, "Ġfriendship": 3432, "ulif": 3433, "olin": 3434, "Ġhalf": 3435, "Ġloop": 3436, "Ġcrawl": 3437, "Ġbroccoli": 3438, "Ġonion": 3439, "Ġdeliver": 3440, "anger": 3441, "Ġacce": 3442, "Ġvide": 3443, "Ġvolcano": 3444, "ĠJake": 3445, "Ġsle": 3446, "Ġtrack": 3447, "Ġbri": 3448, "Ġcaulif": 3449, "Ġvine": 3450, "ye": 3451, "Ġticket": 3452, "Ġthief": 3453, "essie": 3454, "cycle": 3455, "Ġlouder": 3456, "Ġinsect": 3457, "Ġnumbers": 3458, "asing": 3459, "Ġyaw": 3460, "Ġhaircut": 3461, "ital": 3462, "Ġsleeping": 3463, "Ġmill": 3464, "Ġeventually": 3465, "Ġalert": 3466, "Ġexcite": 3467, "Ġpebble": 3468, "Ġhosp": 3469, "Ġattract": 3470, "Ġplanet": 3471, "ĠToday": 3472, "Ġuniver": 3473, "isted": 3474, "ulu": 3475, "Ġhospital": 3476, "Ġeraser": 3477, "Ġreturned": 3478, "Ġdestro": 3479, "Ġgraceful": 3480, "Ġhappening": 3481, "ache": 3482, "ĠOK": 3483, "ĠEmily": 3484, "Ġdecide": 3485, "Ġlearning": 3486, "Ġscreen": 3487, "rework": 3488, "Ġnicely": 3489, "Ġleop": 3490, "Ġcauliflower": 3491, "Ġcompetitive": 3492, "Ġpoem": 3493, "Ġcelebrate": 3494, "Ġcurt": 3495, "Ġpeach": 3496, "Ġsoldier": 3497, "Ġsaus": 3498, "Ġparade": 3499, "atient": 3500, "Ġattractive": 3501, "Ġcurtain": 3502, "Ġdolphin": 3503, "Ġbase": 3504, "Ġviolin": 3505, "Ġways": 3506, "Go": 3507, "ats": 3508, "Ġtravel": 3509, "ten": 3510, "Ġrod": 3511, "Ġignorant": 3512, "ulb": 3513, "Ġwheels": 3514, "Ġyach": 3515, "Ġscatter": 3516, "Ġdeter": 3517, "Ġcompassionate": 3518, "Ġbarrel": 3519, "Ġenvelope": 3520, "Ġbubble": 3521, "Ġlying": 3522, "Ġfirework": 3523, "Ġsort": 3524, "Ġquestion": 3525, "zzy": 3526, "ĠPipp": 3527, "Ġscooter": 3528, "Ġdeterm": 3529, "Ġrag": 3530, "Ġthu": 3531, "Ġbicycle": 3532, "elery": 3533, "Ġneedle": 3534, "ĠFr": 3535, "Ġjudge": 3536, "Ġbulb": 3537, "Ġleopard": 3538, "Ġtem": 3539, "Ġyacht": 3540, "Ġpony": 3541, "Ġcricket": 3542, "Ġorder": 3543, "Ġhomes": 3544, "Ġador": 3545, "tern": 3546, "Ġtruth": 3547, "Ġhook": 3548, "dom": 3549, "Ġrubbed": 3550, "ete": 3551, "igator": 3552, "Ġbushes": 3553, "Sarah": 3554, "Ġuncle": 3555, "Ġcushion": 3556, "Ġspell": 3557, "Ġgrown": 3558, "Ġcooked": 3559, "Ġadorable": 3560, "Ġchalk": 3561, "Ġsoar": 3562, "Ġpurse": 3563, "Ġskin": 3564, "Ġthemselves": 3565, "Ġimpatient": 3566, "Ġcelery": 3567, "Ġtray": 3568, "Ġshells": 3569, "Ġpengu": 3570, "Ġsniff": 3571, "Ġprun": 3572, "Ġwalls": 3573, "Ġseal": 3574, "Ġlively": 3575, "Ġcase": 3576, "Ġalligator": 3577, "Ġdistant": 3578, "Ġradish": 3579, "Ġsaying": 3580, "Ġspeak": 3581, "Ġmotorcycle": 3582, "Ġmeat": 3583, "Ġsend": 3584, "illa": 3585, "Ġspinning": 3586, "Ġforth": 3587, "Ġcounting": 3588, "Ġenth": 3589, "Ġbounced": 3590, "Ġchain": 3591, "Ġed": 3592, "Ġcleaning": 3593, "ebra": 3594, "Ġfilm": 3595, "Ġslept": 3596, "Ġpit": 3597, "Ġsurf": 3598, "Ġmarry": 3599, "usia": 3600, "Ġwallet": 3601, "Ġenthusia": 3602, "Ġmetal": 3603, "urb": 3604, "ebook": 3605, "Ġbin": 3606, "Ġweek": 3607, "Ġnotebook": 3608, "Ġwiped": 3609, "Ġskip": 3610, "ision": 3611, "chair": 3612, "Ġbiggest": 3613, "Ġimpro": 3614, "Ġavocado": 3615, "Ġbehave": 3616, "Ġdestroy": 3617, "vator": 3618, "Ġbandage": 3619, "Ġlaughs": 3620, "Ġsteak": 3621, "Ġpattern": 3622, "ĠSh": 3623, "Ġpost": 3624, "Ġelevator": 3625, "ĠBuzz": 3626, "usie": 3627, "Ġdive": 3628, "Ġshut": 3629, "Ġskipped": 3630, "Ġunlock": 3631, "Ġdiary": 3632, "dest": 3633, "ject": 3634, "Ġzebra": 3635, "Ġbags": 3636, "ating": 3637, "Ġarmchair": 3638, "rage": 3639, "aged": 3640, "Ġdisturb": 3641, "Ġoy": 3642, "Ġpole": 3643, "Ġshowing": 3644, "Ġgathered": 3645, "Ġclub": 3646, "Ġnurse": 3647, "bul": 3648, "Ġearth": 3649, "Ġenc": 3650, "Ġstranger": 3651, "Ġsweater": 3652, "Ġjellyfish": 3653, "Ġscrew": 3654, "Ġtemp": 3655, "ĠPoppy": 3656, "Ġcompl": 3657, "Ġmixer": 3658, "Give": 3659, "Ġskull": 3660, "Ġlime": 3661, "Ġbump": 3662, "bulance": 3663, "Ġambulance": 3664, "nam": 3665, "Ġfather": 3666, "Ġjournal": 3667, "Gra": 3668, "Ġloudly": 3669, "ito": 3670, "Ġfolder": 3671, "Ġshield": 3672, "ĠBet": 3673, "ĠLulu": 3674, "Ġlibrary": 3675, "ĠPeter": 3676, "Ġbuttons": 3677, "Ġplayground": 3678, "Ġtrucks": 3679, "Ġink": 3680, "Ġlights": 3681, "Ġtummy": 3682, "Ġpointing": 3683, "Ġcity": 3684, "Ġdecorate": 3685, "Ġstation": 3686, "irit": 3687, "Ġprep": 3688, "Ġfalls": 3689, "quito": 3690, "ĠPolly": 3691, "Billy": 3692, "Ġfu": 3693, "ĠFo": 3694, "ention": 3695, "nger": 3696, "ĠBirdy": 3697, "lies": 3698, "Ġherb": 3699, "nament": 3700, "Ġornament": 3701, "Ġmodest": 3702, "Ġguard": 3703, "Ġmos": 3704, "Ġknows": 3705, "Ġcord": 3706, "Ġpolish": 3707, "Ġmarble": 3708, "oby": 3709, "Ġmosquito": 3710, "umbled": 3711, "Ġsalt": 3712, "Ġattic": 3713, "Ġwhenever": 3714, "Ġvest": 3715, "ctop": 3716, "Ġresc": 3717, "Ġyet": 3718, "Ġple": 3719, "Ġdisappeared": 3720, "Ġstrawberry": 3721, "Ġonce": 3722, "ĠMum": 3723, "Ġkay": 3724, "Ġbrothers": 3725, "Ġitch": 3726, "Ġpirate": 3727, "Ġfootball": 3728, "Ġsplit": 3729, "kele": 3730, "keleton": 3731, "Ġhipp": 3732, "Ġaut": 3733, "Ġled": 3734, "uring": 3735, "ctopus": 3736, "Ġdriving": 3737, "Ġcable": 3738, "Ġsupport": 3739, "Ġcalling": 3740, "Ġcupboard": 3741, "aky": 3742, "ushed": 3743, "Ġwishes": 3744, "Ġcomplet": 3745, "Ġtripped": 3746, "Ġsucce": 3747, "Ġroot": 3748, "Ġkayak": 3749, "Ġoctopus": 3750, "obile": 3751, "Ġadded": 3752, "Ġedge": 3753, "Ġmild": 3754, "stic": 3755, "Ġdetermined": 3756, "?\".": 3757, "Ġreading": 3758, "omobile": 3759, "Ġcoal": 3760, "Well": 3761, "gl": 3762, "utes": 3763, "par": 3764, "Ġsuggest": 3765, "Ġstack": 3766, "Ġthunder": 3767, "Ġkindness": 3768, "Ġautomobile": 3769, "Ġcomplain": 3770, "Ġenthusiastic": 3771, "Ġsneeze": 3772, "Ġcartoon": 3773, "Ġyoga": 3774, "ĠLittle": 3775, "Ġgrowl": 3776, "htub": 3777, "Ġflea": 3778, "la": 3779, "Ġmeadow": 3780, "Ġdrawer": 3781, "Ġbathtub": 3782, "Ġribb": 3783, "ophone": 3784, "Ġmeans": 3785, "Ġhall": 3786, "Ġgolf": 3787, "Ġskeleton": 3788, "Ġmath": 3789, "Ġveil": 3790, "Ġhunter": 3791, "Ġgor": 3792, "Ġflame": 3793, "Ġpoke": 3794, "Ġvideo": 3795, "Ġchess": 3796, "Ġtroph": 3797, "Ġcups": 3798, "Ġglowing": 3799, "Ġmatt": 3800, "Ġoyster": 3801, "work": 3802, "Ġpenny": 3803, "Ġspear": 3804, "Ġitself": 3805, "Ġdrawings": 3806, "Ġhippo": 3807, "Ġrepair": 3808, "Ġswitch": 3809, "glasses": 3810, "Ġsunglasses": 3811, "Ġteleph": 3812, "Ġcostume": 3813, "Ġdess": 3814, "Ġzipp": 3815, ",âĢĿ": 3816, "Ġrepe": 3817, "Ġmuffin": 3818, "Ġarg": 3819, "Ġpastry": 3820, "Ġpun": 3821, "Ġrolling": 3822, "Ġminutes": 3823, "Ġpacked": 3824, "Ġmakeup": 3825, "iron": 3826, "ric": 3827, "ĠPeople": 3828, "Ġwaffle": 3829, "case": 3830, "Ġhandle": 3831, "Ġpear": 3832, "Ġmaze": 3833, "Ġtelephone": 3834, "Ġpine": 3835, "ait": 3836, "Ġgear": 3837, "Ġhedge": 3838, "Ġmattress": 3839, "Ġpackage": 3840, "aving": 3841, "ĠMiss": 3842, "Ġshocked": 3843, "ines": 3844, "Ġtrophy": 3845, "Ġpowder": 3846, "Ġknight": 3847, "Ġcob": 3848, "Ġmissile": 3849, "Ġmanaged": 3850, "Ġframe": 3851, "Ġencou": 3852, "Ġwife": 3853, "Ġok": 3854, "Ġsepar": 3855, "web": 3856, "Ġstairs": 3857, "Ġrot": 3858, "Ġcamp": 3859, "urch": 3860, "rophone": 3861, "Ġmagaz": 3862, "Ġstrugg": 3863, "Ġcolour": 3864, "Ġgrapes": 3865, "time": 3866, "Ġfile": 3867, "head": 3868, "ĠTina": 3869, "Ġbasketball": 3870, "Bye": 3871, "old": 3872, "per": 3873, "Ġcobweb": 3874, "Re": 3875, "Jimmy": 3876, "ĠTweet": 3877, "See": 3878, "Ġperm": 3879, "Ġwool": 3880, "ĠDan": 3881, "Ġmicrophone": 3882, "esday": 3883, "Ġeye": 3884, "Ġleash": 3885, "Ġgasp": 3886, "iew": 3887, "keep": 3888, "Ġweep": 3889, "Ġbarking": 3890, "ature": 3891, "Ġsafely": 3892, "Ġtear": 3893, "Ġview": 3894, "ffe": 3895, "Ġslides": 3896, "Ġsteps": 3897, "istol": 3898, "ffee": 3899, "Ġbananas": 3900, "Ġstaff": 3901, "Ġspirit": 3902, "Ġtask": 3903, "Ġgiggled": 3904, "Ġhoc": 3905, "Ġhockey": 3906, "Ġvend": 3907, "Ġthose": 3908, "Ġgorilla": 3909, "Jill": 3910, "Ġcooler": 3911, "ĠRose": 3912, "was": 3913, "cing": 3914, "Ġearly": 3915, "Ġmarched": 3916, "rosc": 3917, "Ġmint": 3918, "ĠLook": 3919, "washer": 3920, "Ġflour": 3921, "Ġhotel": 3922, "hic": 3923, "Ġsailor": 3924, "Ġdessert": 3925, "Ġphoto": 3926, "roscope": 3927, "Ġvehic": 3928, "ilot": 3929, "Ġoften": 3930, "Ġchurch": 3931, "ĠPete": 3932, "Ġcooking": 3933, "Ġremain": 3934, "Ġfive": 3935, "Ġsausage": 3936, "otter": 3937, "Ġten": 3938, "Ġtools": 3939, "Ġmedal": 3940, "Ġeither": 3941, "Ġfireman": 3942, "chor": 3943, "Ġgrandpa": 3944, "Ġotter": 3945, "Ġbaseball": 3946, "Ġpretending": 3947, "Ġpistol": 3948, "Ġdishwasher": 3949, "Ġrever": 3950, "Ġorganize": 3951, "Ġpee": 3952, "Ġvendor": 3953, "Ġknock": 3954, "Ġsight": 3955, "Ġgrill": 3956, "Ġtemple": 3957, "Ġbattery": 3958, "Ġthinking": 3959, "Ġopens": 3960, "Ġow": 3961, "Ġrealised": 3962, "Ġiron": 3963, "Ġlaser": 3964, "Ġsne": 3965, "Ġsandbox": 3966, "Ġoil": 3967, "Ġpatch": 3968, "Ġhours": 3969, "Ġrise": 3970, "Ġwhip": 3971, "'d": 3972, "ctory": 3973, "ĠGive": 3974, "Ġanchor": 3975, "Ġtrash": 3976, "ense": 3977, "Ġshort": 3978, "ney": 3979, "ĠBetty": 3980, "Ġrhin": 3981, "Ġfactory": 3982, "seum": 3983, "Ġmay": 3984, "Ġward": 3985, "ately": 3986, "Ġcardboard": 3987, "ugged": 3988, "Ġlotion": 3989, "Al": 3990, "Ġmessage": 3991, "Ġvalu": 3992, "Ġwardrobe": 3993, "Ġcell": 3994, "Ġmuseum": 3995, "apers": 3996, "Ġur": 3997, "ination": 3998, "Ġhanging": 3999, "ucet": 4000, "ailable": 4001, "ĠSunny": 4002, "ĠZoom": 4003, "Ġhive": 4004, "eer": 4005, "Ġtowers": 4006, "keeper": 4007, "Ġblackboard": 4008, "Ġmem": 4009, "Ġexcitement": 4010, "Ġcoffee": 4011, "Ġpilot": 4012, "ready": 4013, "Fluffy": 4014, "Ġnapkin": 4015, "Ġpenguin": 4016, "ron": 4017, "Ġcheck": 4018, "Ġreward": 4019, "loo": 4020, "Ġquit": 4021, "ĠPippin": 4022, "Ġcane": 4023, "Ġpicking": 4024, "place": 4025, "ĠSnow": 4026, "azor": 4027, "Ġfaucet": 4028, "Ġig": 4029, "Ġpassport": 4030, "ĠRob": 4031, "Ġstumbled": 4032, "Ġdreamed": 4033, "Ġigloo": 4034, "ĠBessie": 4035, "aroo": 4036, "angaroo": 4037, "Ġfreez": 4038, "Ġjuicy": 4039, "Ġallowed": 4040, "play": 4041, "Ġholds": 4042, "Ġalready": 4043, "Ġavailable": 4044, "Ġsett": 4045, "Ġbathe": 4046, "Ġtornado": 4047, "imney": 4048, "Ġfingers": 4049, "htray": 4050, "Ġhanger": 4051, "Ġnewsp": 4052, "Ġsize": 4053, "Ġlaund": 4054, "Ġlend": 4055, "Ġchimney": 4056, "Ġlaundry": 4057, "Ġoak": 4058, "Ġfisher": 4059, "Ġkangaroo": 4060, "Ġmen": 4061, "ĠEverywhere": 4062, "Ġtelling": 4063, "Em": 4064, "Ġnovel": 4065, "body": 4066, "Ġmummy": 4067, "Ġpal": 4068, "Ġmule": 4069, "Ġcherries": 4070, "Ġnotice": 4071, "Ġpractice": 4072, "Ġspilled": 4073, "Ġreind": 4074, "Ġcomplete": 4075, "Ġenjoying": 4076, "Ġmicroscope": 4077, "arian": 4078, "ampoo": 4079, "Ġgain": 4080, "Ġsub": 4081, "Ġfireplace": 4082, "Ġimagine": 4083, "anda": 4084, "Ġdisplay": 4085, "ocer": 4086, "ĠZip": 4087, "Ġfastest": 4088, "Ġmagazine": 4089, "Ġhurry": 4090, "Ġcabinet": 4091, "Ġshrink": 4092, "Ġashtray": 4093, "Wait": 4094, "Ġcows": 4095, "ĠSpike": 4096, "Joe": 4097, "gen": 4098, "Ġpalace": 4099, "Ġimprove": 4100, "aches": 4101, "Ġrake": 4102, "Ġreindeer": 4103, "Ġfalling": 4104, "oceros": 4105, "Ġskirt": 4106, "ured": 4107, "Ġdiscovered": 4108, "Ġstared": 4109, "Ġroared": 4110, "aid": 4111, "Ġsilver": 4112, "Ġtub": 4113, "Ġtrail": 4114, "Is": 4115, "Ġminer": 4116, "come": 4117, "Ġbill": 4118, "iction": 4119, "Ġfog": 4120, "Ġax": 4121, "stairs": 4122, "ilet": 4123, "Ġhut": 4124, "Ġhappier": 4125, "Ġtaller": 4126, "ictionary": 4127, "Ġoats": 4128, "Ġfisherman": 4129, "Ġobject": 4130, "Ġpor": 4131, "vision": 4132, "Ġvaluable": 4133, "Ġshampoo": 4134, "Ġholes": 4135, "Ġoffered": 4136, "Ġboots": 4137, "Ġrhinoceros": 4138, "Ġnames": 4139, "Ġtoilet": 4140, "Ġclimbing": 4141, "Ġblin": 4142, "vice": 4143, "Ow": 4144, "Ġstretched": 4145, "iest": 4146, "Ġzipper": 4147, "Ġlistening": 4148, "Ġsym": 4149, "Ġbathrobe": 4150, "alend": 4151, "Ġjewelry": 4152, "ĠHere": 4153, "Ġjokes": 4154, "Ġtelevision": 4155, "Ġprov": 4156, "Ġcalend": 4157, "Ġstops": 4158, "Ġaxe": 4159, "Ġjumps": 4160, "Ġfuel": 4161, "cu": 4162, "Ġsparkly": 4163, "Ġperfume": 4164, "ĠSusie": 4165, "Ġbury": 4166, "bol": 4167, "Mummy": 4168, "lu": 4169, "Ġpressed": 4170, "ĠKim": 4171, "reek": 4172, "Ġrece": 4173, "fa": 4174, "ĠToby": 4175, "Ġneat": 4176, "Ġcreek": 4177, "Ġpopped": 4178, "Ġopera": 4179, "Ġcalendar": 4180, "Ġsnap": 4181, "Ġgasped": 4182, "Ġattach": 4183, "Ġsymbol": 4184, "Ġtuna": 4185, "ĠMar": 4186, "Ġpapers": 4187, "Mr": 4188, "Ġunpack": 4189, "Ġresist": 4190, "Ġdictionary": 4191, "Ġsubway": 4192, "Ġletters": 4193, "Ġfreezer": 4194, "Ġchose": 4195, "Ġpinch": 4196, "zag": 4197, "Ġspoke": 4198, "Ġanyway": 4199, "Ġsuper": 4200, "Ġporch": 4201, "Ġhelper": 4202, "affe": 4203, "Ġbikes": 4204, "Ġlie": 4205, "arry": 4206, "iches": 4207, "Ġtightly": 4208, "Ġcomfort": 4209, "Ġshaking": 4210, "Ġbookcase": 4211, "Ġson": 4212, "Ġrazor": 4213, "aurant": 4214, "Ġsandwiches": 4215, "ĠAre": 4216, "igzag": 4217, "Ġweigh": 4218, "Ġagainst": 4219, "Ġstickers": 4220, "Ġrestaurant": 4221, "Ġnewspaper": 4222, "Ġblouse": 4223, "Ġvehicle": 4224, "Ġswinging": 4225, "Ġped": 4226, "Ġdisag": 4227, "Ġnature": 4228, "Ġsquirrels": 4229, "ival": 4230, "Ġbelongs": 4231, "Ġswamp": 4232, "Ġbutterflies": 4233, "Ġgym": 4234, "del": 4235, "Ġinclu": 4236, "Ġgrowing": 4237, "Ġbuckle": 4238, "omed": 4239, "Ġstirred": 4240, "Ġmustache": 4241, "Ġbillboard": 4242, "xy": 4243, "Ġbeep": 4244, "te": 4245, "Ġalarm": 4246, "Ġlightning": 4247, "Ġlip": 4248, "Ġfest": 4249, "Ġhung": 4250, "utor": 4251, "Ġdistance": 4252, "ogn": 4253, "Ġcards": 4254, "Ġobser": 4255, "Ġagree": 4256, "Little": 4257, "Ġext": 4258, "Ġtease": 4259, "Ġrecogn": 4260, "Ġrubber": 4261, "ik": 4262, "Ġhate": 4263, "fast": 4264, "ef": 4265, "Ouch": 4266, "Ġdoesn": 4267, "Ġmusician": 4268, "Ġadvice": 4269, "Ġbeef": 4270, "Ġserve": 4271, "aspoon": 4272, "Ġsweetie": 4273, "Ġmodel": 4274, "lter": 4275, "Ġcrib": 4276, "Ġblueberries": 4277, "Ġsofa": 4278, "Ġcircles": 4279, "Ġbreakfast": 4280, "Ġtutor": 4281, "asis": 4282, "Ġbookshe": 4283, "Ġgiraffe": 4284, "stri": 4285, "Ġfestival": 4286, "Ġseparate": 4287, "Ġshelter": 4288, "Ġgas": 4289, "Ġairport": 4290, "Ġolive": 4291, "Ġrail": 4292, "Ġbookshelf": 4293, "Ġfrogs": 4294, "Ġteaspoon": 4295, "Ġreverse": 4296, "Ġjunk": 4297, "Ġriding": 4298, "Ġpleased": 4299, "Ġdrain": 4300, "ĠMrs": 4301, "Ġwipe": 4302, "Ġoasis": 4303, "Ġsoil": 4304, "Ġahead": 4305, "Ġrescue": 4306, "Ġleaving": 4307, "ummer": 4308, "Ġpainter": 4309, "Ġsqueeze": 4310, "Ġchance": 4311, "Ġpoked": 4312, "Ġknob": 4313, "ĠTeddy": 4314, "Ġpeeked": 4315, "Ġlumber": 4316, "Ġtrains": 4317, "Ġextra": 4318, "Ġslipp": 4319, "Ġquiz": 4320, "Ġrefused": 4321, "res": 4322, "rmomet": 4323, "Ġpage": 4324, "Ġrules": 4325, "Ġhappens": 4326, "Ġsounded": 4327, "Ġins": 4328, "Ġpoint": 4329, "Ġwinter": 4330, "Ġdancer": 4331, "ĠGrandpa": 4332, "Ġbirdc": 4333, "Ġdisappear": 4334, "rmometer": 4335, "ĠDolly": 4336, "Ġweather": 4337, "Ġwaste": 4338, "Ġlic": 4339, "Ġbirdcage": 4340, "Ġtheater": 4341, "Ġreef": 4342, "Ġcarrying": 4343, "Daisy": 4344, "Ġinvite": 4345, "iform": 4346, "Ġgoal": 4347, "Ġostri": 4348, "Ġuniform": 4349, "Ġswung": 4350, "Ġtrade": 4351, "Ġcliff": 4352, "ience": 4353, "Ġlawn": 4354, "ola": 4355, "Ġleaned": 4356, "ĠPandy": 4357, "angu": 4358, "Ġaccept": 4359, "Ġadmire": 4360, "Ġfort": 4361, "Ġaccidentally": 4362, "Ġpastel": 4363, "bbles": 4364, "Ġstom": 4365, "Ġlangu": 4366, "Ġtwir": 4367, "Ġsuff": 4368, "Ġpanda": 4369, "riger": 4370, "Ġbet": 4371, "rigerator": 4372, "Ġpeek": 4373, "render": 4374, "Ġblinked": 4375, "Ġstarts": 4376, "na": 4377, "Ġrefrigerator": 4378, "Ġanywhere": 4379, "!\".": 4380, "Ġimagined": 4381, "Ġdreaming": 4382, "Ġremove": 4383, "night": 4384, "Ġshower": 4385, "ĠLee": 4386, "ĠCo": 4387, "Ġclassroom": 4388, "Ġceiling": 4389, "Ġcaring": 4390, "ium": 4391, "Ġgrand": 4392, "Ġmissing": 4393, "aked": 4394, "Ġlicense": 4395, "Ġstable": 4396, "Ġthermometer": 4397, "Ġmonkeys": 4398, "astic": 4399, "Ġwarned": 4400, "Ġsummer": 4401, "ĠWhere": 4402, "Ġabove": 4403, "Ġbrick": 4404, "ected": 4405, "Ġcudd": 4406, "Ġproblems": 4407, "amber": 4408, "Ġchasing": 4409, "Ġlabel": 4410, "Ġapron": 4411, "Ġsent": 4412, "urnit": 4413, "urniture": 4414, "Ġlawy": 4415, "Ġlid": 4416, "uggage": 4417, "med": 4418, "Ġrespectful": 4419, "Ġfurniture": 4420, "Ġfrowned": 4421, "Ġzoomed": 4422, "Ġpages": 4423, "Ġprevent": 4424, "Ġbent": 4425, "Ġluggage": 4426, "Ġmistakes": 4427, "Ġsunset": 4428, "Ġostrich": 4429, "ison": 4430, "Ġsuggested": 4431, "Ġwindows": 4432, "ations": 4433, "Ġjail": 4434, "low": 4435, "Ġwine": 4436, "Ġribbon": 4437, "Ġolder": 4438, "Ġshouts": 4439, "Ġgrape": 4440, "ĠCl": 4441, "Ġwigg": 4442, "ucture": 4443, "Ġstructure": 4444, "Ġspoil": 4445, "eor": 4446, "Ġfixing": 4447, "Ġchamber": 4448, "Ġlions": 4449, "Ġdelay": 4450, "Ġfinds": 4451, "Ġhanded": 4452, "Ġsearching": 4453, "Ġunite": 4454, "Did": 4455, "Ġfought": 4456, "Ġlawyer": 4457, "Ġbrightly": 4458, "Ġpair": 4459, "Ġmeeting": 4460, "Ġchoice": 4461, "Ġsurprises": 4462, "ĠEllie": 4463, "Ġart": 4464, "ĠUn": 4465, "Ch": 4466, "Ġfavour": 4467, "eterin": 4468, "eterinarian": 4469, "adium": 4470, "Ġstadium": 4471, "Ġproudly": 4472, "iki": 4473, "Ġveterinarian": 4474, "vet": 4475, "rod": 4476, "Ġchairs": 4477, "Ġslip": 4478, "ĠSpe": 4479, "Ġsadly": 4480, "ĠBow": 4481, "Ġincre": 4482, "ĠCarl": 4483, "Ġpuddles": 4484, "Ġberry": 4485, "Ġintrod": 4486, "Ġranch": 4487, "veal": 4488, "ĠBoun": 4489, "Ġargue": 4490, "ĠV": 4491, "Ġadmired": 4492, "Ġcur": 4493, "Ġfavourite": 4494, "Your": 4495, "Ġinf": 4496, "Ġexcitedly": 4497, "Ġrac": 4498, "Ġgrabs": 4499, "mend": 4500, "Ġsteam": 4501, "thank": 4502, "Ġhuman": 4503, "eorge": 4504, "sity": 4505, "ĠHel": 4506, "Ġpushing": 4507, "Ġsaving": 4508, "ĠRed": 4509, "Ġreveal": 4510, "ommend": 4511, "alley": 4512, "Ġyield": 4513, "olog": 4514, "Ġmall": 4515, "Ġreminded": 4516, "Ġrecommend": 4517, "Ġsucceed": 4518, "Ġleak": 4519, "Ġsurrender": 4520, "Ġharb": 4521, "Ġappl": 4522, "cuss": 4523, "aul": 4524, "Ġweap": 4525, "Ġregret": 4526, "Ġputting": 4527, "Ġvalley": 4528, "Ġmineral": 4529, "Ġevening": 4530, "elcome": 4531, "Ġmatches": 4532, "Ġforgave": 4533, "Ġsneezed": 4534, "Ġpup": 4535, "Ġaw": 4536, "Ġrushed": 4537, "ecause": 4538, "Ġspade": 4539, "Ġapolog": 4540, "Ġplates": 4541, "Ġdiscuss": 4542, "Ġprepare": 4543, "Ġharbor": 4544, "Ġignore": 4545, "ĠBig": 4546, "Ġcountry": 4547, "Ġlanguage": 4548, "ĠBuzzy": 4549, "Ġpulls": 4550, "Ġplastic": 4551, "Ġsupply": 4552, "Ġfloat": 4553, "Ġsniffed": 4554, "ĠJazz": 4555, "Ġreplace": 4556, "Ġmeas": 4557, "Ġshovel": 4558, "ĠBill": 4559, "Ġraise": 4560, "ĠNext": 4561, "Ġfre": 4562, "Ġcared": 4563, "Ġsocks": 4564, "Ġstrip": 4565, "Ġdoors": 4566, "Ġmystery": 4567, "Ġlives": 4568, "Ġrestore": 4569, "Ġsticker": 4570, "Ġsudden": 4571, "ari": 4572, "Ġkinds": 4573, "Ġslippery": 4574, "ero": 4575, "ĠOw": 4576, "Ġplayer": 4577, "Ġpanic": 4578, "ricane": 4579, "Ġhoping": 4580, "iday": 4581, "Ġshone": 4582, "lex": 4583, "hero": 4584, "Ġbeg": 4585, "ĠMike": 4586, "ĠBinky": 4587, "Ġsuperhero": 4588, "Ġdelighted": 4589, "Ġgro": 4590, "Yay": 4591, "aud": 4592, "chan": 4593, "Ġchickens": 4594, "Ġshoulder": 4595, "Ġrained": 4596, "Ġcolourful": 4597, "Ġbreat": 4598, "ĠAlice": 4599, "Ġclaw": 4600, "ĠBubbles": 4601, "Yuck": 4602, "Ġsoftly": 4603, "rise": 4604, "Ġport": 4605, "Grandma": 4606, "Ġhol": 4607, "icer": 4608, "Ġholiday": 4609, "ĠâĢ": 4610, "Ġbarks": 4611, "ason": 4612, "Ġthrowing": 4613, "Ġplanes": 4614, "Mary": 4615, "Ġbend": 4616, "ĠFreddy": 4617, "Ġshakes": 4618, "Ġinfant": 4619, "Ġended": 4620, "Ġshivering": 4621, "Ġkneel": 4622, "Ġsunrise": 4623, "Ġpushes": 4624, "ĠOlive": 4625, "Ġthanks": 4626, "Ġfresh": 4627, "Ġsuffer": 4628, "Ġpoints": 4629, "imed": 4630, "wards": 4631, "ĠPat": 4632, "Ġtip": 4633, "ĠSpeedy": 4634, "Ġfreeze": 4635, "Ġkeeping": 4636, "ĠWould": 4637, "Ġgiggle": 4638, "Ġcopper": 4639, "Ġsmells": 4640, "Ġdear": 4641, "Ġenter": 4642, "Ġprovide": 4643, "cast": 4644, "chanic": 4645, "Ġdishes": 4646, "ĠEnd": 4647, "cond": 4648, "Ġunh": 4649, "Next": 4650, "Ġapplaud": 4651, "Ġheads": 4652, "Ġhurricane": 4653, "Ġcherry": 4654, "Ġthumb": 4655, "Ġmenu": 4656, "Ġmeowed": 4657, "Ġmass": 4658, "Ġsecond": 4659, "Ġbrighter": 4660, "ince": 4661, "Ġsandcast": 4662, "Ġmechanic": 4663, "Ġwre": 4664, "Ġsprayed": 4665, "Ġletting": 4666, "Ġevent": 4667, "Ġweapon": 4668, "Ġlaught": 4669, "Ġx": 4670, "Ġlaughter": 4671, "Ġclapping": 4672, "Ġfeelings": 4673, "Will": 4674, "icky": 4675, "Ġsplashing": 4676, "ement": 4677, "ĠOr": 4678, "acked": 4679, "Ġcastles": 4680, "ĠFl": 4681, "cer": 4682, "Ġscore": 4683, "apping": 4684, "Ġuniverse": 4685, "Ġnavy": 4686, "Ġdem": 4687, "Ġsticky": 4688, "ophie": 4689, "Ġrooms": 4690, "Ġrow": 4691, "Ġflies": 4692, "igi": 4693, "ĠDave": 4694, "Ġunhappy": 4695, "Ġgreedy": 4696, "Ġdare": 4697, "Ġalive": 4698, "Ġbreaks": 4699, "Ġener": 4700, "Ġcourage": 4701, "Ġinvit": 4702, "Ready": 4703, "Ġrepeat": 4704, "Ġdemand": 4705, "Ġtrusted": 4706, "Lisa": 4707, "Ġsomewhere": 4708, "arlie": 4709, "Ġprune": 4710, "bles": 4711, "Ġwreck": 4712, "ĠY": 4713, "Ġskill": 4714, "Ġexamine": 4715, "Ġparts": 4716, "year": 4717, "Ġeaten": 4718, "oe": 4719, "All": 4720, "erc": 4721, "enry": 4722, "Ġmention": 4723, "Ġraining": 4724, "ĠHelp": 4725, "Buddy": 4726, "Ġthrows": 4727, "Ġjogged": 4728, "quest": 4729, "Ġstarting": 4730, "Ġrush": 4731, "Ġpoison": 4732, "Ġpirates": 4733, "heart": 4734, "Ġvac": 4735, "Ġcontent": 4736, "Emma": 4737, "ĠKiki": 4738, "Ġsigh": 4739, "Ġflapped": 4740, "Ġdrops": 4741, "Ġchirp": 4742, "Ġsport": 4743, "Qu": 4744, "Ġsparkled": 4745, "ĠZoomy": 4746, "Ġgiven": 4747, "Ġstreng": 4748, "Ġsteel": 4749, "Ann": 4750, "Ġbumped": 4751, "Ġyawned": 4752, "Ġstud": 4753, "Ġrequest": 4754, "Ġscold": 4755, "Ġmyself": 4756, "Ġstrength": 4757, "Ġshrugged": 4758, "Mark": 4759, "Ġcoats": 4760, "Ġpunish": 4761, "Ġequ": 4762, "Ġsnugg": 4763, "Ġuniversity": 4764, "Ġpaid": 4765, "ĠJohnny": 4766, "Ġpigs": 4767, "Ġscratch": 4768, "Ġtoe": 4769, "Ġexerc": 4770, "Ġtracks": 4771, "Ġupstairs": 4772, "Ġprayed": 4773, "Ġcrossed": 4774, "Ġsqueezed": 4775, "Ġimpressed": 4776, "Ġflood": 4777, "Ġbouncing": 4778, "ĠRu": 4779, "Alice": 4780, "Ġrabbits": 4781, "ges": 4782, "Ġbadly": 4783, "..": 4784, "Ġwarn": 4785, "Ġleather": 4786, "Ġexpect": 4787, "Ġnews": 4788, "Ġtide": 4789, "ĠTed": 4790, "Ġminute": 4791, "Ġbears": 4792, "Ġclaws": 4793, "Ġbuzz": 4794, "Ġsweetheart": 4795, "ĠSm": 4796, "yth": 4797, "Ġnation": 4798, "Sh": 4799, "ythm": 4800, "Ġvacation": 4801, "Ġhist": 4802, "Ġheat": 4803, "Ġstrawberries": 4804, "Ġobserve": 4805, "Ġexplored": 4806, "Ġsettle": 4807, "Ġsandcastle": 4808, "Ġyawn": 4809, "Ġhistory": 4810, "ĠLilly": 4811, "ĠLola": 4812, "mare": 4813, "ĠMummy": 4814, "ĠSque": 4815, "ially": 4816, "inking": 4817, "Ġbelieved": 4818, "Ġhorses": 4819, "Daddy": 4820, "ĠHoppy": 4821, "Ġchecked": 4822, "ĠMandy": 4823, "Ġtour": 4824, "Ġnetwork": 4825, "Ġcheek": 4826, "ĠUnder": 4827, "Ġoffer": 4828, "Ġeasily": 4829, "Ġplaced": 4830, "spec": 4831, "Ġspots": 4832, "Ġsnowball": 4833, "ween": 4834, "men": 4835, "Ġenergy": 4836, "ĠBee": 4837, "Ġimagination": 4838, "Ġblueberry": 4839, "otten": 4840, "Ġbetween": 4841, "specially": 4842, "ĠGigi": 4843, "izes": 4844, "Ġdaisy": 4845, "Ġwaving": 4846, "reeze": 4847, "reat": 4848, "Ġvroom": 4849, "Ġsoak": 4850, "Ġsafari": 4851, "Ġrhythm": 4852, "Ġmassage": 4853, "Ġstomach": 4854, "Ġbaking": 4855, "quake": 4856, "Ġnightmare": 4857, "Ġinsisted": 4858, "Ġblowing": 4859, "Ġentered": 4860, "Before": 4861, "Ġstair": 4862, "Ġpalm": 4863, "Ġbeauty": 4864, "Ġtwisted": 4865, "Ġbother": 4866, "Ġwriting": 4867, "Ġscoop": 4868, "Ġprunes": 4869, "Ġbrain": 4870, "Ġing": 4871, "ipment": 4872, "Ġpoppy": 4873, "Ġhills": 4874, "noon": 4875, "Ġafternoon": 4876, "Ġequipment": 4877, "Ġespecially": 4878, "hest": 4879, "Ġsir": 4880, "Ġpad": 4881, "ĠSee": 4882, "Ġingred": 4883, "Ġcalls": 4884, "Ġingredient": 4885, "ĠFox": 4886, "Ġearthquake": 4887, "Ġignored": 4888, "ĠSnowy": 4889, "Ġburned": 4890, "Ġnobody": 4891, "mble": 4892, "Ġsty": 4893, "apa": 4894, "Ġsew": 4895, "Ġtug": 4896, "isty": 4897, "xygen": 4898, "Ġhearts": 4899, "Ġlear": 4900, "Ġlearnt": 4901, "Ġlemonade": 4902, "Ġincrease": 4903, "illie": 4904, "Jenny": 4905, "Ġgaz": 4906, "Ġbackpack": 4907, "Ġmailman": 4908, "Ġwhistled": 4909, "Ġpedal": 4910, "ĠSk": 4911, "Fred": 4912, "Ġshopkeeper": 4913, "ffic": 4914, "Ġpermit": 4915, "Ġtremble": 4916, "Ġyucky": 4917, "anges": 4918, "Ġmoves": 4919, "Ġintroduce": 4920, "Ġlemons": 4921, "Ġcrash": 4922, "Ġbeans": 4923, "Ġfloated": 4924, "edn": 4925, "ednesday": 4926, "ittens": 4927, "Welcome": 4928, "Ġplanned": 4929, "Ġstrike": 4930, "Ġtraffic": 4931, "Ġinclude": 4932, "Ġslap": 4933, "Ġracing": 4934, "ĠLucky": 4935, "resses": 4936, "Ġwisdom": 4937, "Ġpur": 4938, "Ġwags": 4939, "ĠFinny": 4940, "laimed": 4941, "ĠGeorge": 4942, "Ġluck": 4943, "Ġfollowing": 4944, "ĠĊ": 4945, "Ġprice": 4946, "ecting": 4947, "Ġmama": 4948, "Ġpitch": 4949, "Ġbelow": 4950, "ĠElly": 4951, "ĠHave": 4952, "Le": 4953, "Ġweight": 4954, "Ġexclaimed": 4955, "house": 4956, "Ġburied": 4957, "Ġfollows": 4958, "Ġcomf": 4959, "Ġrecognize": 4960, "Ġingredients": 4961, "Ġfurt": 4962, "tain": 4963, "Ġcandles": 4964, "Mimi": 4965, "Ġmarbles": 4966, "riage": 4967, "emem": 4968, "unday": 4969, "emember": 4970, "eration": 4971, "ĠAlex": 4972, "Ġapart": 4973, "ĠWednesday": 4974, "Ġgrowled": 4975, "uct": 4976, "ĠSu": 4977, "ores": 4978, "Ġconf": 4979, "Ġteaching": 4980, "Ġhopes": 4981, "Ġfolded": 4982, "Ġclosely": 4983, "ĠFinn": 4984, "ĠWho": 4985, "Ġheel": 4986, "ĠSunday": 4987, "Ġencourage": 4988, "ĠPaul": 4989, "ĠOwl": 4990, "Ġzigzag": 4991, "Ġpulling": 4992, "Ġdigg": 4993, "Ġbouncy": 4994, "Ġfurther": 4995, "Ġchewed": 4996, "Ġdigging": 4997, "Ġwinning": 4998, "Woof": 4999, "With": 5000, "Ġdresses": 5001, "Ġimage": 5002, "rec": 5003, "cery": 5004, "Ġshouting": 5005, "Ġgrocery": 5006, "Ġtwisty": 5007, "Ġpeanuts": 5008, "Ġpuzzles": 5009, "bbing": 5010, "ĠDog": 5011, "look": 5012, "Ġscrat": 5013, "Ġchores": 5014, "Ġwhisper": 5015, "ĠIs": 5016, "Ġspike": 5017, "ĠFroggy": 5018, "Ġcape": 5019, "Ġsnail": 5020, "Ġacorns": 5021, "Ġworms": 5022, "hood": 5023, "Ġdeeper": 5024, "Ġurge": 5025, "ifi": 5026, "Ġexper": 5027, "ĠWhenever": 5028, "ĠTilly": 5029, "ĠSqueaky": 5030, "ĠGrace": 5031, "Ġplanted": 5032, "Ġattention": 5033, "ecture": 5034, "Ġexercise": 5035, "ĠDanny": 5036, "Ġcub": 5037, "Ġoperation": 5038, "Ġunderground": 5039, "Ġhon": 5040, "Ġagre": 5041, "Ġquite": 5042, "Ġcreatures": 5043, "Ġsimp": 5044, "Everyone": 5045, "Ġstruggle": 5046, "oral": 5047, "ĠMittens": 5048, "ddy": 5049, "Ġblood": 5050, "Ġlecture": 5051, "Ġwashing": 5052, "Ġhurting": 5053, "Ġvanished": 5054, "Ġgifts": 5055, "Ġdressed": 5056, "Ġinvitation": 5057, "Ġsolved": 5058, "Ġlicks": 5059, "Ġsnuggled": 5060, "ĠSharing": 5061, "ippy": 5062, "Ġble": 5063, "Ġmarriage": 5064, "Ġquietly": 5065, "gie": 5066, "Ġwarning": 5067, "Ġjazz": 5068, "Ġbreathe": 5069, "reci": 5070, "Ġelephants": 5071, "Ġsizes": 5072, "Ġdried": 5073, "Ġfallen": 5074, "Ġlandscape": 5075, "ories": 5076, "Ġsprink": 5077, "Ġneighbour": 5078, "Ġmice": 5079, "uesday": 5080, "Ġappreci": 5081, "ĠSophie": 5082, "ĠJoey": 5083, "ĠâĢĵ": 5084, "Ġeagerly": 5085, "Ġsailing": 5086, "ĠCoco": 5087, "Ġpaused": 5088, "ips": 5089, "Ġcounter": 5090, "ĠGood": 5091, "ĠBounce": 5092, "ĠPenny": 5093, "Ġworth": 5094, "looking": 5095, "ĠRock": 5096, "Ġoxygen": 5097, "Because": 5098, "Ġrelease": 5099, "Ġshined": 5100, "Not": 5101, "pted": 5102, "Ġreaches": 5103, "Ġbalan": 5104, "ĠZara": 5105, "isses": 5106, "Ġoh": 5107, "Ġkisses": 5108, "Ġstyle": 5109, "Ġbricks": 5110, "Ġplays": 5111, "Ġglo": 5112, "ĠTuesday": 5113, "Ġideas": 5114, "sed": 5115, "Ġinst": 5116, "Ġwob": 5117, "Ġfireworks": 5118, "Bella": 5119, "iggly": 5120, "ucked": 5121, "Ġseeing": 5122, "Ġflap": 5123, "ops": 5124, "Ġaccepted": 5125, "right": 5126, "ĠPip": 5127, "Today": 5128, "Ġblink": 5129, "mm": 5130, "ĠRos": 5131, "Ġtremb": 5132, "These": 5133, "Ġmuddy": 5134, "Ġmemory": 5135, "Ġmarried": 5136, "Ġtomatoes": 5137, "Ġexit": 5138, "ĠAnnie": 5139, "Ġwagging": 5140, "Ġfash": 5141, "Remy": 5142, "ĠCharlie": 5143, "Ġwandered": 5144, "unately": 5145, "ipping": 5146, "Ġgloves": 5147, "Ġcaptain": 5148, "Ġpillows": 5149, "Ġreceive": 5150, "Ġresp": 5151, "ĠPinky": 5152, "raged": 5153, "Ġduring": 5154, "ĠEverything": 5155, "etch": 5156, "Ġweb": 5157, "Ġpetals": 5158, "Ġwatered": 5159, "ĠEventually": 5160, "Ġsi": 5161, "ived": 5162, "Ġmanage": 5163, "Ġpinched": 5164, "Ġbrings": 5165, "Ġvanish": 5166, "Ġcakes": 5167, "Ġfashion": 5168, "ĠBluey": 5169, "Ġprinter": 5170, "Ġdestroyed": 5171, "Ġtreasures": 5172, "nce": 5173, "Ġallow": 5174, "ups": 5175, "Ġhadn": 5176, "Ġworse": 5177, "ĠFifi": 5178, "Surpr": 5179, "Ġvel": 5180, "Ġhits": 5181, "Ġbur": 5182, "xu": 5183, "Ġvelvet": 5184, "Ġappear": 5185, "Ġdisagree": 5186, "do": 5187, "Ġcatching": 5188, "Ġscattered": 5189, "ĠRo": 5190, "Ġmemories": 5191, "Ġsorts": 5192, "ĠPapa": 5193, "Ġhers": 5194, "Ġscolded": 5195, "Ġsigns": 5196, "Ġpears": 5197, "Ġoranges": 5198, "Ġbones": 5199, "Ġrang": 5200, "Ġsnapped": 5201, "Ġsits": 5202, "Ġseats": 5203, "uxu": 5204, "Ġgazed": 5205, "Ġraised": 5206, "Bl": 5207, "ĠMaria": 5208, "Ġzipped": 5209, "Ġpies": 5210, "Ġprints": 5211, "Ġshot": 5212, "Ġsliding": 5213, "ĠGod": 5214, "Ġfro": 5215, "Ġeasier": 5216, "ssible": 5217, "Ġskills": 5218, "Ġclimbs": 5219, "Ġtwirled": 5220, "ccer": 5221, "Ġblankets": 5222, "Ġforgotten": 5223, "Ġbaked": 5224, "ester": 5225, "Yum": 5226, "esterday": 5227, "Ġdifference": 5228, "orted": 5229, "Ġluxu": 5230, "Ġgolden": 5231, "ising": 5232, "Ġkitty": 5233, "ĠTw": 5234, "Ġcutting": 5235, "Ġseason": 5236, "aggie": 5237, "Ġnowhere": 5238, "Ġcrow": 5239, "ah": 5240, "Ġsoccer": 5241, "Ġdared": 5242, "Ġbites": 5243, "ĠHenry": 5244, "ĠHarry": 5245, "anny": 5246, "Ġlung": 5247, "Ġcelebrated": 5248, "choo": 5249, "chie": 5250, "Ġstraight": 5251, "Ġunlocked": 5252, "sters": 5253, "Ġsorting": 5254, "Ġcollected": 5255, "Ġbleed": 5256, "aped": 5257, "ding": 5258, "Ġwelcomed": 5259, "Ġvisited": 5260, "Ġspoons": 5261, "Ġours": 5262, "Ġstitch": 5263, "Ġjogging": 5264, "Surprise": 5265, "medi": 5266, "Ġemer": 5267, "ĠSpark": 5268, "mediately": 5269, "Ġisn": 5270, "Ġtong": 5271, "Ġtrave": 5272, "Ġwinner": 5273, "umble": 5274, "Ġsince": 5275, "Ġruin": 5276, "Ġprett": 5277, "Ok": 5278, "Moral": 5279, "ĠTony": 5280, "Ġattached": 5281, "Ġweeping": 5282, "Ġmarching": 5283, "Ġluxury": 5284, "Ġsimple": 5285, "ĠEach": 5286, "Ġshouldn": 5287, "Ġguessed": 5288, "Ġzero": 5289, "Ġcreated": 5290, "Ġstuffed": 5291, "Ġpets": 5292, "ction": 5293, "Ġwaist": 5294, "Ġfamil": 5295, "Ġurged": 5296, "Ġselling": 5297, "Ġbowed": 5298, "Ġfloating": 5299, "rr": 5300, "ĠSmith": 5301, "Ġbye": 5302, "ĠKing": 5303, "Ġvict": 5304, "Ġkingdom": 5305, "Ġolives": 5306, "Ġkicking": 5307, "ĠWiggly": 5308, "Ġpunished": 5309, "ĠLiz": 5310, "ĠBaby": 5311, "sit": 5312, "Ġtoes": 5313, "Ġgrant": 5314, "Ġmuscles": 5315, "Ġjewels": 5316, "ĠRosie": 5317, "Ġbeds": 5318, "Ġmelted": 5319, "Goodbye": 5320, "Ġslice": 5321, "Ġgrin": 5322, "Ġunderstanding": 5323, "Ġcollection": 5324, "Ġtore": 5325, "Ġmeasured": 5326, "aker": 5327, "Ġcras": 5328, "omeday": 5329, "iers": 5330, "Ġtrapped": 5331, "Ġlined": 5332, "'ve": 5333, "Ġacted": 5334, "fortunately": 5335, "Ġencouraged": 5336, "va": 5337, "ĠSandy": 5338, "Ġreceived": 5339, "Ġwaffles": 5340, "ĠBefore": 5341, "ĠWally": 5342, "Ġwest": 5343, "Ġmeow": 5344, "ents": 5345, "Ġpatterns": 5346, "rin": 5347, "ino": 5348, "Ġbrus": 5349, "eath": 5350, "Ġmouths": 5351, "kins": 5352, "Ġbang": 5353, "ĠKate": 5354, "Meow": 5355, "Ġpeaches": 5356, "Ġbreeze": 5357, "aded": 5358, "une": 5359, "ring": 5360, "Ġprinted": 5361, "Ġsoldiers": 5362, "Ġsomeday": 5363, "Ġpotatoes": 5364, "Ġpupil": 5365, "umes": 5366, "ĠMillie": 5367, "Ġdrinks": 5368, "Ġshed": 5369, "Ġexperience": 5370, "ĠTuna": 5371, "Ġpresents": 5372, "Ġfiref": 5373, "ĠRuby": 5374, "Ġsurround": 5375, "Ġnone": 5376, "osed": 5377, "Ġvoices": 5378, "eep": 5379, "Ġdrinking": 5380, "ĠUncle": 5381, "ishing": 5382, "Ġrelaxed": 5383, "Ġvictory": 5384, "cus": 5385, "Ġpaints": 5386, "Ġbreaking": 5387, "eve": 5388, "Ġhurried": 5389, "ission": 5390, "Ġtwink": 5391, "Ġtongue": 5392, "Ġcostumes": 5393, "Ġflat": 5394, "Ġmentioned": 5395, "Ġbegged": 5396, "Ġteasing": 5397, "Ġwhistling": 5398, "Ġfetch": 5399, "Ġpermission": 5400, "Ġsip": 5401, "Ġdisagreed": 5402, "Ġpearl": 5403, "akes": 5404, "Ġstro": 5405, "vest": 5406, "ĠThese": 5407, "Ġesc": 5408, "Ġappro": 5409, "Ġskipping": 5410, "Ġfishing": 5411, "ĠMay": 5412, "Leo": 5413, "Ġhighest": 5414, "Ġpra": 5415, "Ġwatches": 5416, "Ġsorted": 5417, "Ġringing": 5418, "ship": 5419, "Ġtonight": 5420, "ĠBo": 5421, "Ġopin": 5422, "Ġlets": 5423, "icing": 5424, "ĠQu": 5425, "Ġperfectly": 5426, "Ġshadows": 5427, "Ġimmediately": 5428, "Ġherbs": 5429, "Ġwarmth": 5430, "Ġspit": 5431, "Ġremained": 5432, "ther": 5433, "ĠIts": 5434, "walk": 5435, "Bobby": 5436, "irring": 5437, "Jen": 5438, "Ġsneak": 5439, "Ġsix": 5440, "Ġlips": 5441, "Ġkneeled": 5442, "Blue": 5443, "Ġcontest": 5444, "ĠChe": 5445, "utter": 5446, "Ġcartoons": 5447, "Ġsidewalk": 5448, "Ġcolours": 5449, "Ġstamps": 5450, "Ġago": 5451, "Ha": 5452, "ĠToto": 5453, "ĠBoo": 5454, "ĠFollow": 5455, "Ġeast": 5456, "Ġheaded": 5457, "oved": 5458, "\",": 5459, "Ġstrang": 5460, "Ġladyb": 5461, "Ġfed": 5462, "Ġsupposed": 5463, "Ġroots": 5464, "Ġlick": 5465, "Ġcrunch": 5466, "Ġmixing": 5467, "Ġworks": 5468, "Ġdecorations": 5469, "Ġmelting": 5470, "Ġknown": 5471, "Ġemergen": 5472, "Mandy": 5473, "Ġrested": 5474, "ĠAb": 5475, "Ġlines": 5476, "ĠSuzy": 5477, "Ġlily": 5478, "ĠJul": 5479, "Ġinstr": 5480, "Ġlaid": 5481, "ĠGr": 5482, "Ġsucceeded": 5483, "Ġcones": 5484, "Ġwiggle": 5485, "ety": 5486, "Ġshock": 5487, "Ġsetting": 5488, "ĠSlow": 5489, "sing": 5490, "Ġstudied": 5491, "Ġstrangers": 5492, "ĠRocky": 5493, "Really": 5494, "Ġtwigs": 5495, "Ġbrid": 5496, "Ġtheirs": 5497, "ĠDr": 5498, "Ġgirls": 5499, "boo": 5500, "!\",": 5501, "Ġscreams": 5502, "Ġlands": 5503, "Ġordered": 5504, "Ġstirring": 5505, "Ġmoments": 5506, "Ġfields": 5507, "Ġalright": 5508, "Ġstealing": 5509, "ded": 5510, "Andy": 5511, "Ġrul": 5512, "Ġbravely": 5513, "avid": 5514, "ĠBoth": 5515, "Ġmister": 5516, "!'": 5517, "Ġinvest": 5518, "Ġscratched": 5519, "Ġplaytime": 5520, "Ġripped": 5521, "Ġinvestig": 5522, "Ġtucked": 5523, "Ġresting": 5524, "Ġburning": 5525, "ishes": 5526, "ĠClara": 5527, "ĠChicky": 5528, "Ġbridges": 5529, "Ġofficer": 5530, "please": 5531, "Sammy": 5532, "Bird": 5533, "abies": 5534, "Ġsettled": 5535, "Ġmatched": 5536, "Ġachie": 5537, "Ġtex": 5538, "Ġtexture": 5539, "Happy": 5540, "Ġwaits": 5541, "Ġturning": 5542, "ĠSky": 5543, "Peter": 5544, "ored": 5545, "Ġtrembling": 5546, "isten": 5547, "Ġnails": 5548, "atie": 5549, "Ġmuffins": 5550, "ĠSomeone": 5551, "ids": 5552, "Ġescaped": 5553, "ĠJames": 5554, "Ġpiles": 5555, "Ġinvestigate": 5556, "osity": 5557, "Ġbroom": 5558, "Ġladybug": 5559, "Ġsore": 5560, "ĠPepper": 5561, "Ġappreciate": 5562, "Ġadmir": 5563, "Ġthreat": 5564, "Ġbabies": 5565, "Ġsilence": 5566, "Ġsisters": 5567, "Ġemergency": 5568, "Ġarea": 5569, "ides": 5570, "Ġdads": 5571, "Ġanswers": 5572, "Ġpupp": 5573, "Ġkeys": 5574, "Ġchewing": 5575, "Ġslapped": 5576, "Ġwiz": 5577, "Ġimportance": 5578, "Boo": 5579, "Ġserved": 5580, "ĠHop": 5581, "Ġsafety": 5582, "izing": 5583, "Bu": 5584, "Would": 5585, "Ġsparkle": 5586, "Ġtouching": 5587, "ĠLater": 5588, "Ġsoared": 5589, "igail": 5590, "Ġsings": 5591, "Ġhen": 5592, "allen": 5593, "Ella": 5594, "bers": 5595, "antly": 5596, "Momo": 5597, "ĠDino": 5598, "Ġkeeps": 5599, "Ġamazement": 5600, "Ġchallen": 5601, "Ġtwin": 5602, "Ġhesit": 5603, "Ġrevealed": 5604, "anna": 5605, "achel": 5606, "Ġitem": 5607, "Ġdire": 5608, "Ġsoaked": 5609, "zing": 5610, "Ġwrit": 5611, "Ġfoods": 5612, "Ġrides": 5613, "Ġdinosaurs": 5614, "Ġrecorded": 5615, "Ġtickle": 5616, "Ġinch": 5617, "ĠZigzag": 5618, "ĠMe": 5619, "Ġwizard": 5620, "Ġvet": 5621, "Ġtrips": 5622, "Ġglowed": 5623, "ĠAn": 5624, "ĠFrog": 5625, "Mmm": 5626, "Ġhi": 5627, "Ġbeamed": 5628, "Ġquack": 5629, "Ġcurled": 5630, "Ġhated": 5631, "Ġwink": 5632, "Ġshopping": 5633, "Ġeats": 5634, "Eventually": 5635, "ĠBug": 5636, "Ġpraised": 5637, "Ġwooden": 5638, "Ġbringing": 5639, "Ġmittens": 5640, "Ġstudying": 5641, "Ġguy": 5642, "Ġbrushes": 5643, "Ġspaceship": 5644, "Ġgust": 5645, "Ġcrawling": 5646, "ĠSomething": 5647, "Cat": 5648, "Ġruler": 5649, "Ġflav": 5650, "Ġdownstairs": 5651, "Ġshooting": 5652, "Ġtastes": 5653, "Ġnapping": 5654, "Ġsprinkles": 5655, "Ġmarks": 5656, "Ġcuddled": 5657, "Ġdot": 5658, "hello": 5659, "plash": 5660, "Ġfut": 5661, "ales": 5662, "aved": 5663, "Ġfuture": 5664, "Ġmonsters": 5665, "Ġcollecting": 5666, "Ġmeasuring": 5667, "ĠHappy": 5668, "'.": 5669, "Ġfamilies": 5670, "ĠOut": 5671, "ĠFirst": 5672, "ĠMo": 5673, "Ġthrill": 5674, "Ġoat": 5675, "irts": 5676, "Ġresult": 5677, "Jake": 5678, "Ġapproached": 5679, "ĠRabbit": 5680, "Ġcrunchy": 5681, "act": 5682, "Un": 5683, "Ġremem": 5684, "Ġbleeding": 5685, "Ġremembers": 5686, "Ġnicer": 5687, "Ġbeat": 5688, "Ġsneaky": 5689, "Ġdisturbed": 5690, "Ġleader": 5691, "Ġscaring": 5692, "Or": 5693, "hind": 5694, "Ġpeel": 5695, "ĠHope": 5696, "Ġfiremen": 5697, "Ġneighborhood": 5698, "ĠStar": 5699, "Ġgrey": 5700, "ĠNot": 5701, "Ġmotion": 5702, "Ġnoon": 5703, "Ġpossible": 5704, "Emily": 5705, "Somet": 5706, "Ġapologized": 5707, "Ġweighed": 5708, "ues": 5709, "ĠDid": 5710, "Ġtickets": 5711, "Cl": 5712, "Ġnaps": 5713, "Ġloose": 5714, "Ġpride": 5715, "Ġyouth": 5716, "Ġswims": 5717, "ped": 5718, "Ġstrings": 5719, "Ġrecognized": 5720, "Ġsiren": 5721, "Ġpoking": 5722, "fied": 5723, "ĠHo": 5724, "cious": 5725, "ha": 5726, "elvet": 5727, "Ġtricked": 5728, "Ġwonders": 5729, "Ġgained": 5730, "Ġwanting": 5731, "Ġcrashed": 5732, "Ġobe": 5733, "Ġseesaw": 5734, "Ġworker": 5735, "unnies": 5736, "ls": 5737, "oming": 5738, "Ġdraws": 5739, "Ġscooped": 5740, ".'": 5741, "Ġzooming": 5742, "Ġopinion": 5743, "Ġyelling": 5744, "Ġprepared": 5745, "Ġgrinned": 5746, "ĠSlowly": 5747, "Ġawe": 5748, "Ġpoems": 5749, "Ġdoggy": 5750, "Ġacting": 5751, "ĠBeep": 5752, "Ġhappiest": 5753, "Ġchef": 5754, "Ġsneaked": 5755, "Ġrespons": 5756, "Ġeff": 5757, "ĠAlways": 5758, "ĠLizzy": 5759, "Ġowned": 5760, "Ġbunnies": 5761, "Ġanytime": 5762, "Ġstruck": 5763, "Ġpedals": 5764, "oys": 5765, "Ġknelt": 5766, "ena": 5767, "Ollie": 5768, "Ġsecrets": 5769, "Ġpause": 5770, "Ġdecorated": 5771, "Ġhorns": 5772, "Ġagreement": 5773, "ĠSqu": 5774, "ided": 5775, "Ġfrost": 5776, "Ġtallest": 5777, "Ġobey": 5778, "Remember": 5779, "riends": 5780, "ogo": 5781, "ĠStop": 5782, "Have": 5783, "Ġdecides": 5784, "ĠOnce": 5785, "Ġbehaved": 5786, "Ġtugged": 5787, "Ġsides": 5788, "Ġwoof": 5789, "Ġslim": 5790, "zen": 5791, "Ġgoodnight": 5792, "Ġkeeper": 5793, "Ġsparkling": 5794, "Ġchirped": 5795, "Ġprecious": 5796, "mother": 5797, "lier": 5798, "ien": 5799, "Tr": 5800, "Ġrepeated": 5801, "Ġclaps": 5802, "indy": 5803, "affes": 5804, "Ġsnowballs": 5805, "Ġcontain": 5806, "ud": 5807, "rs": 5808, "ĠRay": 5809, "Ġourselves": 5810, "allow": 5811, "Ġgiraffes": 5812, "Ġbalancing": 5813, "Ġkindly": 5814, "Ġspending": 5815, "Ġwrites": 5816, "ays": 5817, "ppers": 5818, "ĠLike": 5819, "omas": 5820, "Ġprop": 5821, "Ġhissed": 5822, "First": 5823, "Ġfrozen": 5824, "Ġfrosting": 5825, "Ġeffort": 5826, "Ġbuzzing": 5827, "Ġstruggled": 5828, "oh": 5829, "ĠSteve": 5830, "Ġadmiring": 5831, "Ġrele": 5832, "iggy": 5833, "Ġsweeties": 5834, "ĠVelvet": 5835, "Ġslimy": 5836, "Ġbrushed": 5837, "Ġbloomed": 5838, "Susie": 5839, "ĠAm": 5840, "Ġpolished": 5841, "ĠZoe": 5842, "arth": 5843, "anted": 5844, "Ġcomfy": 5845, "Ġboo": 5846, "Ġstaying": 5847, "Ġrubbing": 5848, "Ducky": 5849, "Ġrocking": 5850, "Ġpockets": 5851, "Ġthrilled": 5852, "Ġbeside": 5853, "Ġcomple": 5854, "ĠAunt": 5855, "ĠMaggie": 5856, "Ah": 5857, "Ġeight": 5858, "urry": 5859, "isdom": 5860, "Ġmachines": 5861, "Ġearlier": 5862, "Ġyesterday": 5863, "Ġseems": 5864, "Ġrust": 5865, "ĠKeep": 5866, "Sp": 5867, "Ġtraveled": 5868, "Ġfolding": 5869, "Ġboom": 5870, "Ġcracked": 5871, "ities": 5872, "Ġhugging": 5873, "Ġradishes": 5874, "ĠStitch": 5875, "Ġopening": 5876, "Ġloving": 5877, "Ġcircus": 5878, "Ġsurrounded": 5879, "Ġcuriosity": 5880, "ĠRachel": 5881, "Ġspraying": 5882, "Ġdemanded": 5883, "Ġpaintings": 5884, "amie": 5885, "ĠGreen": 5886, "Ġremoved": 5887, "Ġgaze": 5888, "Ġhonk": 5889, "Ġpebbles": 5890, "Ġzookeeper": 5891, "Ġhardly": 5892, "Ġcatches": 5893, "edding": 5894, "Ġstripes": 5895, "Ġpowers": 5896, "Ġloaded": 5897, "ĠPippa": 5898, "Sometimes": 5899, "Ġsplashes": 5900, "Ġpots": 5901, "Ġpetted": 5902, "Ġmatching": 5903, "ĠDavid": 5904, "Thanks": 5905, "Ġtoss": 5906, "Ġstare": 5907, "Ġbelly": 5908, "Yummy": 5909, "ibb": 5910, "Ġwhatever": 5911, "Ġapologize": 5912, "Ġrocked": 5913, "Ġcomforted": 5914, "ĠBree": 5915, "Ġdecision": 5916, "Ġribbons": 5917, "ĠJoy": 5918, "ĠBirdie": 5919, "ern": 5920, "Ġstruggling": 5921, "Ġexpected": 5922, "Ġdeser": 5923, "Ġsteep": 5924, "wh": 5925, "Ġprotected": 5926, "Ġneighbors": 5927, "Ġsmiley": 5928, "Ġchases": 5929, "During": 5930, "Ġgranted": 5931, "Ġcrumb": 5932, "ĠMat": 5933, "Ġpurred": 5934, "Ġdiving": 5935, "Ġsadness": 5936, "Whiskers": 5937, "Ġorganizing": 5938, "lowers": 5939, "Ġeagle": 5940, "Ġheroes": 5941, "Ġdipped": 5942, "Ġsunlight": 5943, "Ġlied": 5944, "Ġpastels": 5945, "ĠFrank": 5946, "Ex": 5947, "Ġsafer": 5948, "Ġroads": 5949, "Ġsting": 5950, "Ġscru": 5951, "Ġargued": 5952, "ĠMilly": 5953, "Ġgoals": 5954, "ĠWater": 5955, "Ġdiscovery": 5956, "ĠAbigail": 5957, "Ġvillag": 5958, "Ġpeered": 5959, "Ro": 5960, "ĠBouncy": 5961, "use": 5962, "loe": 5963, "Ġtim": 5964, "Ġdragons": 5965, "Ġbuildings": 5966, "Ġbuckets": 5967, "Ġparties": 5968, "Ġbeard": 5969, "Ġwedding": 5970, "Rex": 5971, "Ġflutter": 5972, "Ġplanets": 5973, "Ġann": 5974, "ĠRobby": 5975, "Ġpolishing": 5976, "Ġfasc": 5977, "ira": 5978, "Ġreleased": 5979, "ĠChr": 5980, "Ġcrabs": 5981, "ĠGogo": 5982, "Ġtails": 5983, "ĠWatch": 5984, "Ġsausages": 5985, "ĠJu": 5986, "Ġargu": 5987, "Ġcontro": 5988, "Ġbottles": 5989, "Ġwiggled": 5990, "Ġteased": 5991, "uke": 5992, "Ġarguing": 5993, "Ġsled": 5994, "Ġdragged": 5995, "Ġpadd": 5996, "ĠCar": 5997, "Ġroaring": 5998, "Ġclearing": 5999, "Ġshirts": 6000, "Ġmovies": 6001, "Ġgathering": 6002, "Ġairpl": 6003, "Ġwid": 6004, "joyed": 6005, "Ġteaches": 6006, "Ġspiders": 6007, "Ġlimes": 6008, "ĠRemember": 6009, "ĠDare": 6010, "Ġoverjoyed": 6011, "Ġactually": 6012, "Ġsighs": 6013, "Ġcontinue": 6014, "Ġcuddle": 6015, "Ġsoaring": 6016, "Ġsmallest": 6017, "ĠJess": 6018, "Ġdrives": 6019, "Ġsparkles": 6020, "Ġrip": 6021, "Ġsitu": 6022, "Ġcubes": 6023, "Ġrefres": 6024, "Ġtalent": 6025, "Ġchallenge": 6026, "ĠOlly": 6027, "Ġgrandmother": 6028, "ĠSplash": 6029, "Ġpouring": 6030, "umm": 6031, "Ġpretends": 6032, "Ġfascin": 6033, "Ġcuts": 6034, "Ġquarreling": 6035, "Ġpeppers": 6036, "Ġbank": 6037, "Ġshivered": 6038, "Ġmane": 6039, "Ġdusty": 6040, "ley": 6041, "Ġwondering": 6042, "Ġvillagers": 6043, "Ġstretching": 6044, "njoy": 6045, "ib": 6046, "Ġweeks": 6047, "Ġwherever": 6048, "Ġdarker": 6049, "jam": 6050, "Tiny": 6051, "sses": 6052, "ĠX": 6053, "Ġrings": 6054, "Ġonwards": 6055, "ĠKatie": 6056, "Ġunited": 6057, "Achoo": 6058, "Ġbead": 6059, "ĠEveryday": 6060, "ĠBeing": 6061, "Ġprettiest": 6062, "Johnny": 6063, "Ġcaut": 6064, "Ġrealize": 6065, "Ġcompany": 6066, "Ġpenguins": 6067, "annah": 6068, "Luna": 6069, "Fr": 6070, "Ġbedtime": 6071, "Ġcompleted": 6072, "ĠWisdom": 6073, "ĠLeave": 6074, "âĢĿ.": 6075, "Ġknights": 6076, "ĠSpring": 6077, "Ġflags": 6078, "ĠJe": 6079, "ĠBecause": 6080, "Ġplayroom": 6081, "ĠPrin": 6082, "Ġactions": 6083, "ĠZero": 6084, "Ġlearns": 6085, "Ġgotten": 6086, "ana": 6087, "Ġpatience": 6088, "inda": 6089, "dam": 6090, "Ġshrug": 6091, "Ġkites": 6092, "Ġresponsible": 6093, "Ġfears": 6094, "Ġdestination": 6095, "Ġwires": 6096, "Ġreply": 6097, "Ġwrist": 6098, "Ġdam": 6099, "aws": 6100, "Ġpacking": 6101, "Ġmountains": 6102, "Ġfault": 6103, "Ġapplauded": 6104, "Ġscrubbed": 6105, "Ġma": 6106, "Ġcrept": 6107, "ĠAva": 6108, "Uh": 6109, "ĠEarth": 6110, "Ġsatis": 6111, "Ġthird": 6112, "Ġphot": 6113, "Ġpencils": 6114, "Ġwins": 6115, "Ġsticking": 6116, "Ġbaker": 6117, "Ġvisiting": 6118, "Ġwound": 6119, "Ġuses": 6120, "Ġpeas": 6121, "Ġreminder": 6122, "Ġcontrol": 6123, "ashed": 6124, "Grandpa": 6125, "Ġjoking": 6126, "Ġawake": 6127, "Ġinstruct": 6128, "Ġstaring": 6129, "Ġhealed": 6130, "ĠPut": 6131, "Ġhitting": 6132, "ĠFish": 6133, "Ġscreaming": 6134, "Ġbegin": 6135, "Rob": 6136, "uckily": 6137, "ĠFriends": 6138, "ĠMoo": 6139, "icorn": 6140, "Ġhelmets": 6141, "enty": 6142, "Ġunicorn": 6143, "ler": 6144, "seek": 6145, "Ġtowels": 6146, "Silly": 6147, "ĠLou": 6148, "Ġchips": 6149, "ica": 6150, "Ġcreation": 6151, "Ġwasted": 6152, "bie": 6153, "Mar": 6154, "ĠBehind": 6155, "laire": 6156, "Ġmasks": 6157, "Ġitems": 6158, "Ġforgi": 6159, "Ġfirefight": 6160, "Ġoutdo": 6161, "Ġlollipops": 6162, "Watch": 6163, "Ġheav": 6164, "Ġguns": 6165, "Ġdied": 6166, "ĠHippy": 6167, "Ġseas": 6168, "Ġglitter": 6169, "uddles": 6170, "Ġarrive": 6171, "Ġweren": 6172, "Ġstole": 6173, "Ġscales": 6174, "Ġperched": 6175, "Ġaccom": 6176, "Ġlogs": 6177, "Ġachieve": 6178, "die": 6179, "Ġpracticing": 6180, "ining": 6181, "Ġwhose": 6182, "Stay": 6183, "Ġpumpkins": 6184, "Ġinstructions": 6185, "Ġswoop": 6186, "Ġbatteries": 6187, "Ġcandies": 6188, "Ġagrees": 6189, "Ġproject": 6190, "Ġsnakes": 6191, "Ġchirping": 6192, "Benny": 6193, "Ġshelves": 6194, "Ġprotecting": 6195, "Ġparked": 6196, "Ġexact": 6197, "ĠCra": 6198, "Ġpatiently": 6199, "Ġactiv": 6200, "Ġvideos": 6201, "Ġshoulders": 6202, "Ġblows": 6203, "hee": 6204, "Fo": 6205, "Ġpromises": 6206, "go": 6207, "Ġdent": 6208, "usan": 6209, "uest": 6210, "ners": 6211, "jamas": 6212, "Ġexamined": 6213, "Ġairplane": 6214, "Doggy": 6215, "Ġroses": 6216, "Ġaccompl": 6217, "Ġtasks": 6218, "Dave": 6219, "ĠHoot": 6220, "Poppy": 6221, "ĠBop": 6222, "Bunny": 6223, "Ġbeads": 6224, "Ġbowls": 6225, "Ġcrumbs": 6226, "zes": 6227, "Ġlistens": 6228, "ĠLove": 6229, "ĠCatty": 6230, "ĠBrownie": 6231, "Pete": 6232, "ĠOl": 6233, "Ġdolphins": 6234, "Ġcough": 6235, "Ġbunch": 6236, "Ġguest": 6237, "cakes": 6238, "Ġrequested": 6239, "Ġremote": 6240, "Ġimproved": 6241, "anta": 6242, "Ġreaching": 6243, "Ġbrand": 6244, "ĠJan": 6245, "ayla": 6246, "Ġalien": 6247, "ĠBye": 6248, "irm": 6249, "Ġcopy": 6250, "ĠSun": 6251, "Ġcheering": 6252, "Ġphotos": 6253, "ĠJulie": 6254, "ĠChew": 6255, "Bad": 6256, "ĠBlink": 6257, "Time": 6258, "Ġcans": 6259, "ĠCuddles": 6260, "Ġtimer": 6261, "ĠBy": 6262, "Ġreplaced": 6263, "athy": 6264, "Ġworkers": 6265, "Ġstern": 6266, "ĠEnjoy": 6267, "aster": 6268, "Ġneither": 6269, "Mike": 6270, "Ġpassing": 6271, "Ġmisses": 6272, "Ġcurtains": 6273, "Ġconfl": 6274, "Chirpy": 6275, "Ġrainbows": 6276, "Ġrubs": 6277, "George": 6278, "uctantly": 6279, "Ġrolls": 6280, "Ġpatted": 6281, "ilo": 6282, "Ġpajamas": 6283, "Ġoutdoors": 6284, "esome": 6285, "dies": 6286, "Ġcomplaining": 6287, "ĠSquirrel": 6288, "Lola": 6289, "Run": 6290, "Ġpuppet": 6291, "ĠPrincess": 6292, "Ġcloses": 6293, "Ġbeneath": 6294, "Ġlap": 6295, "Ġdrums": 6296, "Ġtune": 6297, "ĠBeth": 6298, "ĠMouse": 6299, "Ġfilling": 6300, "Miss": 6301, "angled": 6302, "Ġrefuse": 6303, "ĠSorry": 6304, "Ġsweat": 6305, "Ġfaced": 6306, "...": 6307, "Ġseven": 6308, "Ġbalanced": 6309, "Ġrescued": 6310, "neath": 6311, "bl": 6312, "Ġquacked": 6313, "ĠAbby": 6314, "Paul": 6315, "istle": 6316, "Ġawesome": 6317, "Ġ1": 6318, "Ġmission": 6319, "ĠHowever": 6320, "Ġguys": 6321, "Ġconflict": 6322, "Ġcautious": 6323, "Ġvent": 6324, "Ġobserved": 6325, "Ġcause": 6326, "Ġintroduc": 6327, "ĠThomas": 6328, "Ġpastries": 6329, "nie": 6330, "ĠĠ": 6331, "ĠOur": 6332, "Ġexactly": 6333, "Ġdoctors": 6334, "Ġrule": 6335, "Ġbecoming": 6336, "Ġpoliceman": 6337, "Ġmes": 6338, "uly": 6339, "Ġrockets": 6340, "you": 6341, "ĠYes": 6342, "ĠDot": 6343, "Ġfairies": 6344, "lay": 6345, "Ġpout": 6346, "An": 6347, "Ġinsist": 6348, "Ġblooming": 6349, "Ġtractor": 6350, "Ġfarther": 6351, "ĠSad": 6352, "avi": 6353, "Oops": 6354, "Great": 6355, "Ġremembering": 6356, "Ġincluded": 6357, "Ġcurly": 6358, "Zoom": 6359, "Fine": 6360, "Ġteamwork": 6361, "zie": 6362, "Ġfascinated": 6363, "Ġwobbled": 6364, "Ġslam": 6365, "Ġtruly": 6366, "Ġhelpers": 6367, "Ġsights": 6368, "Ġpaddle": 6369, "Ġstumble": 6370, "Ġfirm": 6371, "Henry": 6372, "ĠJilly": 6373, "acob": 6374, "Ġcaused": 6375, "Ġprayer": 6376, "Ġspong": 6377, "Ġrecording": 6378, "kelly": 6379, "ais": 6380, "Ġtraded": 6381, "Ġstarfish": 6382, "Ġsupplies": 6383, "Ġthro": 6384, "Ġpointy": 6385, "Ġsituation": 6386, "Ġinviting": 6387, "eah": 6388, "gers": 6389, "Ġneighbourhood": 6390, "Ġeveryday": 6391, "Ġornaments": 6392, "ĠAlly": 6393, "inkle": 6394, "Ġvalued": 6395, "Ġadding": 6396, "Some": 6397, "Ġreluctantly": 6398, "Ġdots": 6399, "Ġstays": 6400, "Ġtables": 6401, "Ġprettier": 6402, "Ġbare": 6403, "Ġdesert": 6404, "Ġsnowmen": 6405, "Ġsteady": 6406, "Ġminerals": 6407, "araway": 6408, "Ġthorn": 6409, "ody": 6410, "Ġast": 6411, "Ġglasses": 6412, "Ġfaraway": 6413, "ĠGet": 6414, "ĠFoxy": 6415, "Ġswooped": 6416, "ĠWelcome": 6417, "ĠTwo": 6418, "ĠSure": 6419, "Ġunf": 6420, "Ġforks": 6421, "Ġusually": 6422, "Ġusual": 6423, "Polly": 6424, "Ġdar": 6425, "ĠJamie": 6426, "Ġwinked": 6427, "Ġsneezing": 6428, "Ġsolut": 6429, "Ġloading": 6430, "Ġsponge": 6431, "ĠQuick": 6432, "Ġinsects": 6433, "Ġpans": 6434, "Dog": 6435, "Ġsobbed": 6436, "ĠSanta": 6437, "James": 6438, "Ġgrowling": 6439, "sm": 6440, "arter": 6441, "Ġthroat": 6442, "ĠChloe": 6443, "Ġnoses": 6444, "ĠJosh": 6445, "ĠDizzy": 6446, "Ġscarves": 6447, "Ġconfident": 6448, "Ġyourselves": 6449, "ĠWant": 6450, "agull": 6451, "Ġhomework": 6452, "Ġsuperheroes": 6453, "ĠStay": 6454, "Joey": 6455, "Ġsmarter": 6456, "Ġwindy": 6457, "Ġlibrarian": 6458, "Tina": 6459, "ĠKids": 6460, "Ġgems": 6461, "Days": 6462, "ora": 6463, "Ġunderneath": 6464, "Ġkicks": 6465, "Ġknowled": 6466, "Ġitchy": 6467, "Ġknowledge": 6468, "Ġjackets": 6469, "ĠSkelly": 6470, "ĠFor": 6471, "Ġsurface": 6472, "Ġuntie": 6473, "Ġcomm": 6474, "ĠDuck": 6475, "Ġprincesses": 6476, "...\"": 6477, "Those": 6478, "ido": 6479, "Hold": 6480, "Yeah": 6481, "coon": 6482, "Ġsquares": 6483, "ĠHenny": 6484, "Ġwarnings": 6485, "Ġgiggling": 6486, "iar": 6487, "Ġreads": 6488, "vin": 6489, "Our": 6490, "Ġchoo": 6491, "son": 6492, "Ġyounger": 6493, "Ġclowns": 6494, "ĠMix": 6495, "Toby": 6496, "Ġropes": 6497, "Ġbiting": 6498, "Ġcrowd": 6499, "ĠUnfortunately": 6500, "pite": 6501, "Danny": 6502, "True": 6503, "Ġseagull": 6504, "Ġpaddled": 6505, "eed": 6506, "Ġwears": 6507, "Ġdelivered": 6508, "ĠMon": 6509, "Ġtwirl": 6510, "Ġonions": 6511, "Ġbuzzed": 6512, "Ġcomplained": 6513, "Ġbumpy": 6514, "Ġstem": 6515, "Ew": 6516, "Ġpiggy": 6517, "Mrs": 6518, "ĠAnne": 6519, "Ġdirection": 6520, "ouch": 6521, "Ġdived": 6522, "Roar": 6523, "Ġtangled": 6524, "Ġstartled": 6525, "ults": 6526, "Ġleaning": 6527, "bbie": 6528, "ĠAnt": 6529, "ĠJones": 6530, "Ġbadge": 6531, "ĠPo": 6532, "Grace": 6533, "Ġunp": 6534, "Ġdeal": 6535, "though": 6536, "Annie": 6537, "Ġvowed": 6538, "Ġnapkins": 6539, "anes": 6540, "Ġtickled": 6541, "Ġrisk": 6542, "Ġcovers": 6543, "Ġpec": 6544, "Shh": 6545, "Ġyells": 6546, "Ġsatisfied": 6547, "int": 6548, "Ġknocks": 6549, "Ġrefreshed": 6550, "tuce": 6551, "ĠSc": 6552, "cuse": 6553, "Ġcous": 6554, "Ġarrows": 6555, "Maggie": 6556, "ĠWhistle": 6557, "Pe": 6558, "Ġwipes": 6559, "Ġspeaking": 6560, "Ġlettuce": 6561, "Ġguessing": 6562, "Unfortunately": 6563, "ĠQuack": 6564, "Ġripe": 6565, "ĠSusan": 6566, "Ġhides": 6567, "Ġchoices": 6568, "ĠDodo": 6569, "ĠRover": 6570, "Buzz": 6571, "Ġsigned": 6572, "Ġslower": 6573, "Ġseeker": 6574, "Ġintroduced": 6575, "Ġsinger": 6576, "Ġcreating": 6577, "ĠMatt": 6578, "Ġfroze": 6579, "Ġcent": 6580, "uggles": 6581, "Ġjoked": 6582, "Ġsqueal": 6583, "Ġtoaster": 6584, "Ġexplorers": 6585, "fit": 6586, "Ġavo": 6587, "anging": 6588, "Sophie": 6589, "Ġpraying": 6590, "Ġwritten": 6591, "Ġdiscovering": 6592, "Ġprovided": 6593, "ĠDara": 6594, "Ġrefle": 6595, "ĠLion": 6596, "Excuse": 6597, "Ġmushrooms": 6598, "ĠJeff": 6599, "ĠPaws": 6600, "Ġpaying": 6601, "Ġknees": 6602, "ences": 6603, "Ġhider": 6604, "Ġwandering": 6605, "ĠAsh": 6606, "Ġimages": 6607, "Charlie": 6608, "Ġstung": 6609, "ĠWink": 6610, "Ġmagnets": 6611, "Ġbarely": 6612, "Ġbehaving": 6613, "Ġtipto": 6614, "?\",": 6615, "Ġmarked": 6616, "brush": 6617, "rrr": 6618, "Ġrestored": 6619, "ĠDee": 6620, "Ġleading": 6621, "lled": 6622, "Ġchuck": 6623, "ados": 6624, "Ġnine": 6625, "Ġgreet": 6626, "Teddy": 6627, "Ġgears": 6628, "Ġbravery": 6629, "ĠSnuggles": 6630, "ky": 6631, "Ġcompetition": 6632, "eal": 6633, "Ġoutfit": 6634, "oline": 6635, "Ġwishing": 6636, "Ġproperly": 6637, "Ġventured": 6638, "tle": 6639, "aa": 6640, "Ġmuscle": 6641, "Ġdances": 6642, "Ġchat": 6643, "Ġsalty": 6644, "Ġpens": 6645, "amb": 6646, "ĠBetsy": 6647, "Ġranger": 6648, "ĠZiggy": 6649, "Ġdeserve": 6650, "Ġhowever": 6651, "sequ": 6652, "Ġmatters": 6653, "Ġdarkness": 6654, "Ġburst": 6655, "ĠFu": 6656, "Ġrainy": 6657, "Ġcobwebs": 6658, "Ġruining": 6659, "Ġchefs": 6660, "Ġconsequ": 6661, "Ġblocking": 6662, "Ġbak": 6663, "usted": 6664, "itely": 6665, "sty": 6666, "Ġscur": 6667, "Ġvines": 6668, "Ġfab": 6669, "abel": 6670, "Ġfabric": 6671, "Ġentire": 6672, "Ġbasement": 6673, "Ġperformed": 6674, "Ġleast": 6675, "ĠBuggy": 6676, "Sn": 6677, "Ġscratches": 6678, "Ġheavier": 6679, "ĠClaire": 6680, "Ġmints": 6681, "Ġtwirling": 6682, "Ġavocados": 6683, "However": 6684, "ĠLinda": 6685, "rink": 6686, "fl": 6687, "Ġscurried": 6688, "Ġlosing": 6689, "Ġsunflowers": 6690, "ĠJenna": 6691, "Ġrainco": 6692, "Ġswords": 6693, "Tweet": 6694, "ssss": 6695, "Ġclick": 6696, "agic": 6697, "ĠLaser": 6698, "Ġsilent": 6699, "Ġjobs": 6700, "Ġnecklaces": 6701, "Ġflames": 6702, "ĠLuke": 6703, "Ġrelief": 6704, "ĠGrumpy": 6705, "Ġsnat": 6706, "Ġsewed": 6707, "Ġrotting": 6708, "len": 6709, "Listen": 6710, "Follow": 6711, "Ġtricky": 6712, "Jerry": 6713, "Ġlighter": 6714, "ophia": 6715, "Ġbows": 6716, "ĠSkip": 6717, "Ġexha": 6718, "Ġsolution": 6719, "Ġconsequences": 6720, "Alex": 6721, "ĠLena": 6722, "Ġtires": 6723, "Ġstain": 6724, "Beep": 6725, "Ġunpacked": 6726, "Ab": 6727, "Ġpartic": 6728, "rance": 6729, "Ġraces": 6730, "Ġpins": 6731, "Ġbumps": 6732, "Ġwraps": 6733, "aisies": 6734, "Ġwow": 6735, "Ġdecorating": 6736, "Ġbacked": 6737, "cher": 6738, "Ġdentist": 6739, "Ġpurr": 6740, "Ġneedles": 6741, "Ġcautiously": 6742, "Ġlifting": 6743, "izzie": 6744, "ĠPr": 6745, "Ġaccomplish": 6746, "Ġtriangles": 6747, "Ġdaisies": 6748, "ept": 6749, "Ġhesitated": 6750, "Ġannoy": 6751, "ĠThose": 6752, "Ġgrowls": 6753, "Ġcrackers": 6754, "oke": 6755, "Ġstomped": 6756, "Ġgrabbing": 6757, "Ġcott": 6758, "Ġfigured": 6759, "Ġbodies": 6760, "Ġmater": 6761, "Ġbuying": 6762, "ĠTree": 6763, "Ġmaterial": 6764, "ĠRolly": 6765, "ĠFido": 6766, "ĠAdam": 6767, "Ġswans": 6768, "Ġties": 6769, "Ġgri": 6770, "vers": 6771, "Ġgrows": 6772, "ĠĊĠ": 6773, "Ġsweets": 6774, "ĠGoodbye": 6775, "Ġowners": 6776, "Ġflavor": 6777, "Ġcheeks": 6778, "ĠCathy": 6779, "Big": 6780, "Ġsuffering": 6781, "ĠJessie": 6782, "ĠEl": 6783, "vroom": 6784, "Ġfact": 6785, "Ġgroups": 6786, "bly": 6787, "Ġforehead": 6788, "Ġlungs": 6789, "Harry": 6790, "Ġrepa": 6791, "Ġinterested": 6792, "Ġbakery": 6793, "ĠMilo": 6794, "Ġfreed": 6795, "Lilly": 6796, "itches": 6797, "ĠNothing": 6798, "Ġchuckled": 6799, "For": 6800, "Ġswept": 6801, "Ġconn": 6802, "?'": 6803, "Ġthud": 6804, "Ġexhausted": 6805, "Tw": 6806, "Ġtwinkling": 6807, "Ġtapped": 6808, "Ru": 6809, "Ġnect": 6810, "rosty": 6811, "Ġnectar": 6812, "elle": 6813, "Ġfeast": 6814, "Ġdarling": 6815, "indr": 6816, "ĠMad": 6817, "Ġworries": 6818, "Ġuns": 6819, "Ġtunnels": 6820, "Ġfuzzy": 6821, "Ġrepaired": 6822, "Ġreason": 6823, "ĠTrust": 6824, "ĠCopper": 6825, "ĠBall": 6826, "Ġactivities": 6827, "lets": 6828, "Ġpecked": 6829, "ĠHannah": 6830, "Ġentrance": 6831, "ĠTry": 6832, "Ġraindr": 6833, "Ġmeals": 6834, "ĠListen": 6835, "Ġparticular": 6836, "Ġcompletely": 6837, "Ġmailed": 6838, "ctions": 6839, "Ġnests": 6840, "Ġwaiter": 6841, "Ġcuddly": 6842, "Ġsense": 6843, "ĠNana": 6844, "Ġcolored": 6845, "arky": 6846, "Ġleap": 6847, "step": 6848, "band": 6849, "Ġplenty": 6850, "Ġpeeking": 6851, "Ġslammed": 6852, "ĠCara": 6853, "no": 6854, "Ġplayers": 6855, "Ġmonth": 6856, "Ġbudge": 6857, "ĠBirthday": 6858, "ĠQ": 6859, "Ġscra": 6860, "Ġforgets": 6861, "Ġden": 6862, "Ġhandful": 6863, "ĠOliver": 6864, "Ġmer": 6865, "ossible": 6866, "Ġgenie": 6867, "ĠChrist": 6868, "Ġstool": 6869, "iggie": 6870, "Ġtalks": 6871, "ĠPup": 6872, "ĠSuzie": 6873, "Ġpassports": 6874, "Ġfeeding": 6875, "Ġfilms": 6876, "Ġbaths": 6877, "Ġimpossible": 6878, "Ġdetermination": 6879, "May": 6880, "Ġprinting": 6881, "boat": 6882, "Ġdesigned": 6883, "Ġbuses": 6884, "Ġopp": 6885, "ueen": 6886, "lephant": 6887, "Ġsuitcase": 6888, "Ġbars": 6889, "Ġcounts": 6890, "Ġstolen": 6891, "Ġspreading": 6892, "Ġspikes": 6893, "ĠSnap": 6894, "Ġwiping": 6895, "Ġsteer": 6896, "Ġlamb": 6897, "ĠRain": 6898, "Ġhonked": 6899, "etty": 6900, "nies": 6901, "Whee": 6902, "Ġcowb": 6903, "Ġseparated": 6904, "blings": 6905, "Ġsiblings": 6906, "Ġhops": 6907, "Ġchop": 6908, "Ġsewing": 6909, "Ġfires": 6910, "ĠTwinkle": 6911, "Ġfever": 6912, "Ġtwinkle": 6913, "Ġty": 6914, "Ġcamping": 6915, "ĠMira": 6916, "Ġlower": 6917, "Ġchanging": 6918, "yes": 6919, "retch": 6920, "Ġbehavi": 6921, "ĠBloom": 6922, "mas": 6923, "Ġliqu": 6924, "Ġcelebration": 6925, "but": 6926, "Ġsquealed": 6927, "Ġdollhouse": 6928, "Sunny": 6929, "Ġbackward": 6930, "Ġage": 6931, "Ġsnatched": 6932, "Ġcash": 6933, "ho": 6934, "Ġtwice": 6935, "lee": 6936, "Ġsway": 6937, "itched": 6938, "Ġcelebrating": 6939, "ĠPeanut": 6940, "Ġshrinking": 6941, "Ġache": 6942, "weed": 6943, "Ġkings": 6944, "rious": 6945, "Ġshops": 6946, "Ġkittens": 6947, "ne": 6948, "cope": 6949, "Rose": 6950, "ĠJessica": 6951, "ĠJacob": 6952, "ĠGina": 6953, "aura": 6954, "Ġhus": 6955, "Ġtouches": 6956, "airy": 6957, "Ġpancakes": 6958, "Ġavoid": 6959, "Ġspat": 6960, "ĠFrosty": 6961, "rig": 6962, "hog": 6963, "ĠNina": 6964, "Ġpaths": 6965, "ives": 6966, "cky": 6967, "ĠHold": 6968, "Ġrotten": 6969, "Ġcalmed": 6970, "Sandy": 6971, "Ġseaweed": 6972, "Ġdropping": 6973, "ĠJon": 6974, "ĠMel": 6975, "iles": 6976, "Pipp": 6977, "Ġtwisting": 6978, "Ġstroked": 6979, "Ġuntied": 6980, "llen": 6981, "Ġplayhouse": 6982, "Millie": 6983, "Ġstudents": 6984, "Ġpuppies": 6985, "cl": 6986, "ĠSof": 6987, "hi": 6988, "Ġscrews": 6989, "Ġastron": 6990, "ĠRe": 6991, "Ġsomebody": 6992, "igning": 6993, "Ġliquid": 6994, "ammy": 6995, "Ġwakes": 6996, "Ġsquish": 6997, "ĠWoof": 6998, "Ġbracelets": 6999, "Ġastronaut": 7000, "immer": 7001, "aren": 7002, "Ġthrown": 7003, "Ġloops": 7004, "ĠOther": 7005, "Luckily": 7006, "Ġwrapping": 7007, "Ġplain": 7008, "Ġtramp": 7009, "Ġplanning": 7010, "Ġskunk": 7011, "Ġaimed": 7012, "Ġpennies": 7013, "Ġshoo": 7014, "Ġlifts": 7015, "Ġdancers": 7016, "Ġsparks": 7017, "Ġfirefly": 7018, "pen": 7019, "Dan": 7020, "Ġposter": 7021, "yan": 7022, "endy": 7023, "Ġcust": 7024, "ĠChristmas": 7025, "Ġrewarded": 7026, "Ġobjects": 7027, "Ġdirections": 7028, "using": 7029, "ingo": 7030, "Ġreflection": 7031, "Ġhusband": 7032, "âĢĶ": 7033, "Take": 7034, "river": 7035, "Ġclues": 7036, "uppy": 7037, "Ġleads": 7038, "Ġincreased": 7039, "Ġblocked": 7040, "Ġrising": 7041, "Ġdod": 7042, "Ġcousin": 7043, "ĠYesterday": 7044, "ĠWithout": 7045, "Ġforgetting": 7046, "rigued": 7047, "Ġcustom": 7048, "Kate": 7049, "ude": 7050, "Ġtrampoline": 7051, "Ġbeginning": 7052, "Ġstorekeeper": 7053, "Ġpouted": 7054, "Ġzebras": 7055, "Ġhedgehog": 7056, "Ġaff": 7057, "ĠâĢĺ": 7058, "Ġborrowed": 7059, "ĠRollie": 7060, "Ġsnowfl": 7061, "Ġcountryside": 7062, "Jump": 7063, "Ġmesmer": 7064, "ĠJay": 7065, "Ġvehicles": 7066, "Ġinstrum": 7067, "ĠMic": 7068, "ĠKayla": 7069, "ĠUp": 7070, "Ġfrowning": 7071, "ivity": 7072, "Pat": 7073, "Under": 7074, "Ġmarker": 7075, "yond": 7076, "Ġpresses": 7077, "Ġbeyond": 7078, "ĠQueen": 7079, "Ġdamage": 7080, "ĠOnly": 7081, "iece": 7082, "ivery": 7083, "Ġfart": 7084, "ĠTara": 7085, "ĠBiggie": 7086, "jo": 7087, "Ġhealth": 7088, "Ġwhispers": 7089, "Ġswimsuit": 7090, "Ġslips": 7091, "Ġnibb": 7092, "ĠJulia": 7093, "armer": 7094, "Ġwarmer": 7095, "Ġflapping": 7096, "Ġtiptoed": 7097, "Ġregretted": 7098, "itted": 7099, "Zip": 7100, "Ġlaying": 7101, "ĠRobo": 7102, "ades": 7103, "Ġyelp": 7104, "ĠFire": 7105, "Ġrains": 7106, "Ġglued": 7107, "Ġeverybody": 7108, "Ġcreations": 7109, "Ġhearing": 7110, "Ġswir": 7111, "Ġcolder": 7112, "iversity": 7113, "ael": 7114, "Ġshaped": 7115, "ĠElephant": 7116, "Ġstreets": 7117, "Ġfins": 7118, "Ġrusty": 7119, "Ġcushions": 7120, "Out": 7121, "Ġsan": 7122, "Ġfarthest": 7123, "Ġcreativity": 7124, "ĠMikey": 7125, "ans": 7126, "Ġsale": 7127, "Always": 7128, "Co": 7129, "Ġstrongest": 7130, "ibbit": 7131, "Ġfits": 7132, "ĠSparky": 7133, "Ġbells": 7134, "Ġdollars": 7135, "ĠLarry": 7136, "Ġearn": 7137, "iam": 7138, "angle": 7139, "Ġlending": 7140, "ĠMoon": 7141, "ĠChirp": 7142, "eese": 7143, "Ġcashier": 7144, "Milly": 7145, "Ġincluding": 7146, "Ġsniffs": 7147, "Ġsank": 7148, "Ġraincoat": 7149, "ĠRich": 7150, "Ġtrembled": 7151, "Ġstopping": 7152, "Ġsource": 7153, "iti": 7154, "imon": 7155, "ĠMissy": 7156, "Ġwobbly": 7157, "Ġindeed": 7158, "ters": 7159, "Ġguests": 7160, "Ġsingle": 7161, "Ġrecommended": 7162, "Ġwee": 7163, "Ġspells": 7164, "Ġaccomplishment": 7165, "Ġbelts": 7166, "Ġsurprising": 7167, "Ġends": 7168, "Ġhopeful": 7169, "Ġseasons": 7170, "ĠTake": 7171, "ĠSnowman": 7172, "ĠEls": 7173, "Bear": 7174, "Ġplans": 7175, "ichael": 7176, "Ġencourag": 7177, "Ġsupported": 7178, "stick": 7179, "illed": 7180, "Ġsuffered": 7181, "Ġartist": 7182, "Ġperformance": 7183, "eet": 7184, "Nina": 7185, "Ġslowed": 7186, "Ġgross": 7187, "Ġflavors": 7188, "iding": 7189, "ertain": 7190, "Ġspins": 7191, "cho": 7192, "Quack": 7193, "Ġlabels": 7194, "Ġraindrops": 7195, "Ġdelivery": 7196, "uing": 7197, "arac": 7198, "Ġraccoon": 7199, "Ġforgiving": 7200, "obody": 7201, "ĠWoo": 7202, "Ġpours": 7203, "the": 7204, "ility": 7205, "Ġvanilla": 7206, "Ġturtles": 7207, "Ġstands": 7208, "Bill": 7209, "uess": 7210, "Ġrecipe": 7211, "Ġbeam": 7212, "Ġtying": 7213, "ĠSw": 7214, "Ġgeese": 7215, "Ġwilling": 7216, "Ġrobber": 7217, "Ġdrawn": 7218, "Vroom": 7219, "Ġwept": 7220, "ĠBones": 7221, "Ġcharac": 7222, "Ġpops": 7223, "Ġcorners": 7224, "ĠSophia": 7225, "elia": 7226, "Ġqueens": 7227, "Ġsailboat": 7228, "Ġgrip": 7229, "Ġdie": 7230, "Ġdrivers": 7231, "itude": 7232, "Ġmoo": 7233, "Ġhallway": 7234, "Ġimagining": 7235, "Ġseconds": 7236, "ĠFuzzy": 7237, "Mine": 7238, "Ġpreparing": 7239, "Ġwidened": 7240, "Ġadult": 7241, "ĠSpirit": 7242, "Ġgrocer": 7243, "Ġcoop": 7244, "Ġtalented": 7245, "ĠPam": 7246, "ĠBeaky": 7247, "ĠIzzy": 7248, "ummies": 7249, "Ġsailors": 7250, "lling": 7251, "Ġsofter": 7252, "Ġaside": 7253, "Ġwatering": 7254, "Ġsending": 7255, "Ġknots": 7256, "Ġunsure": 7257, "Ġtipped": 7258, "Lulu": 7259, "Ġtreehouse": 7260, "Ġhoriz": 7261, "ĠLizzie": 7262, "Ġnotes": 7263, "Ġecho": 7264, "igers": 7265, "Ġachieved": 7266, "Ġhorizon": 7267, "Ġsqueak": 7268, "Ġdelivering": 7269, "Ġpleasure": 7270, "Ġhotter": 7271, "ĠStella": 7272, "Clara": 7273, "Ġpupils": 7274, "Ġburrow": 7275, "Ġangels": 7276, "Ġcuriously": 7277, "Ellie": 7278, "Ġyum": 7279, "Ġblinking": 7280, "ĠJune": 7281, "Ġtweet": 7282, "Ġsymbols": 7283, "Ġdet": 7284, "ĠStretch": 7285, "wk": 7286, "Ġpassen": 7287, "ĠRudy": 7288, "ĠCindy": 7289, "Ġtummies": 7290, "Ġtiss": 7291, "Ġpigeons": 7292, "Ġfigures": 7293, "umbling": 7294, "oey": 7295, "Ġbandages": 7296, "ĠRobert": 7297, "Ġcoup": 7298, "ĠDoctor": 7299, "Ġrobots": 7300, "alph": 7301, "Ġtossed": 7302, "Ġhour": 7303, "Ġbackwards": 7304, "Ġroars": 7305, "Baby": 7306, "Ġmerma": 7307, "uzz": 7308, "Ġrather": 7309, "atur": 7310, "Maria": 7311, "cited": 7312, "ĠPlay": 7313, "ĠCrab": 7314, "Moo": 7315, "ighting": 7316, "Dolly": 7317, "Ġgroceries": 7318, "Ġzipping": 7319, "Put": 7320, "Very": 7321, "Ġunw": 7322, "prin": 7323, "Ġamong": 7324, "Ġblown": 7325, "Ġicing": 7326, "!âĢĿ.": 7327, "Ġrumble": 7328, "Ġafterwards": 7329, "ipper": 7330, "Ġscrewd": 7331, "ushing": 7332, "Ġsped": 7333, "Ġprove": 7334, "Ġglee": 7335, "ĠTiti": 7336, "ĠTia": 7337, "Ġdip": 7338, "Ġovercome": 7339, "Ruby": 7340, "Quick": 7341, "Ġsurfboard": 7342, "Ġshovels": 7343, "Ġslices": 7344, "ĠToot": 7345, "Ġmerry": 7346, "Ġwobble": 7347, "Ġmate": 7348, "ĠTurt": 7349, "ĠAbbie": 7350, "Ġheading": 7351, "Ġdisturbing": 7352, "Ġswall": 7353, "Ġreversed": 7354, "Ġfirefighters": 7355, "Jul": 7356, "Ġswallowed": 7357, "Ġchip": 7358, "eds": 7359, "Ġscored": 7360, "Ġflipped": 7361, "ĠJump": 7362, "Ġsqueezing": 7363, "usty": 7364, "Frank": 7365, "aty": 7366, "Su": 7367, "Ġwaking": 7368, "Ġintrigued": 7369, "Sad": 7370, "Like": 7371, "Ġmaker": 7372, "ĠBarky": 7373, "awn": 7374, "Betty": 7375, "Ġpuff": 7376, "Ġhawk": 7377, "Ġencouraging": 7378, "Ġaud": 7379, "ĠEx": 7380, "osen": 7381, "onies": 7382, "Ġchosen": 7383, "ĠRon": 7384, "hew": 7385, "ĠFarmer": 7386, "ĠAng": 7387, "Ġcouple": 7388, "Ġdesigns": 7389, "Ġslipping": 7390, "Ġscrewdriver": 7391, "Ġsquishy": 7392, "ĠEmmy": 7393, "Ġgardener": 7394, "Ġcenter": 7395, "Ġrivers": 7396, "Ġrespond": 7397, "Ġmarkers": 7398, "iley": 7399, "Ġtigers": 7400, "Ġjars": 7401, "pecting": 7402, "Ġfrowns": 7403, "bird": 7404, "Ġfluttered": 7405, "ĠSadly": 7406, "ĠKit": 7407, "Ribbit": 7408, "Ġfirefighter": 7409, "ĠSl": 7410, "ĠRyan": 7411, "Ġsuits": 7412, "Ġsecure": 7413, "Ġsprinkled": 7414, "Ġcreamy": 7415, "ashes": 7416, "Ġsharks": 7417, "Ġignoring": 7418, "Ġbru": 7419, "Ġgiggles": 7420, "Ġtissue": 7421, "Ġtighter": 7422, "Ġfirmly": 7423, "ounce": 7424, "ĠLaura": 7425, "fly": 7426, "Ġshown": 7427, "Ġfamiliar": 7428, "Ġthorns": 7429, "Spike": 7430, "ĠWo": 7431, "Ġdrawers": 7432, "child": 7433, "ĠZee": 7434, "Ġexpress": 7435, "Car": 7436, "ments": 7437, "Ġdef": 7438, "Ġdaring": 7439, "Ġcrossing": 7440, "Ġaudience": 7441, "Ġperforming": 7442, "Ġcoloured": 7443, "Ġcloudy": 7444, "Ġcor": 7445, "Ġais": 7446, "ĠNick": 7447, "ae": 7448, "rat": 7449, "Ġpedaled": 7450, "Get": 7451, "Ġmixture": 7452, "Ġtil": 7453, "Ġgracefully": 7454, "ggy": 7455, "Ġhaircuts": 7456, "Ġyielded": 7457, "Ġponies": 7458, "Ġdisob": 7459, "Ġcrowns": 7460, "Ġbits": 7461, "Ġtodd": 7462, "ĠSleep": 7463, "Ġnervously": 7464, "Ġhangers": 7465, "bbled": 7466, "ĠPatch": 7467, "Zoomy": 7468, "Ġpays": 7469, "Ġ2": 7470, "Ġpeck": 7471, "Ġstroke": 7472, "Ġev": 7473, "fall": 7474, "Bang": 7475, "een": 7476, "Ġrespected": 7477, "Ġnapped": 7478, "aven": 7479, "Ġminded": 7480, "ddie": 7481, "Bessie": 7482, "ably": 7483, "Boys": 7484, "Ġtested": 7485, "ading": 7486, "parent": 7487, "ĠChris": 7488, "Kim": 7489, "ĠUniversity": 7490, "ĠNear": 7491, "Ġbeeh": 7492, "ĠTurtle": 7493, "Ġsurfing": 7494, "Ġneighbours": 7495, "arrow": 7496, "vered": 7497, "Ġshady": 7498, "iona": 7499, "arlings": 7500, "Ġmagician": 7501, "Ġenthusiasm": 7502, "Ġdarlings": 7503, "Ġwisely": 7504, "Ġstitches": 7505, "Ġsails": 7506, "kend": 7507, "Dear": 7508, "Ġweekend": 7509, "Ġthoughts": 7510, "Freddy": 7511, "ĠTweetie": 7512, "Ġreminds": 7513, "Ġtemper": 7514, "oring": 7515, "tha": 7516, "antha": 7517, "Ġsurroundings": 7518, "Ġspits": 7519, "Ġfleas": 7520, "Ġteams": 7521, "Ġlessons": 7522, "Ġfills": 7523, "Ġflip": 7524, "ĠAlong": 7525, "Ġpaintbrush": 7526, "Ġmelons": 7527, "Ġmermaid": 7528, "oni": 7529, "Katie": 7530, "Ġgrandchild": 7531, "Ġhoops": 7532, "Ġexplo": 7533, "Ġelbow": 7534, "Ġsports": 7535, "Guess": 7536, "Ġlies": 7537, "ĠFighting": 7538, "rac": 7539, "Ġpanicked": 7540, "Ġcleaner": 7541, "Ġamount": 7542, "cused": 7543, "Ġlongest": 7544, "Ġscooters": 7545, "Ġlent": 7546, "ita": 7547, "immering": 7548, "Ġsill": 7549, "Ġbeloved": 7550, "Pippin": 7551, "Ġbeehive": 7552, "Alright": 7553, "ongrat": 7554, "oga": 7555, "lle": 7556, "ongratul": 7557, "Ġoysters": 7558, "Ġgrandparent": 7559, "Ġforgiven": 7560, "Ġmagazines": 7561, "Ġarr": 7562, "ĠWise": 7563, "Ġelf": 7564, "Ġrepeating": 7565, "Ġdiscussed": 7566, "Ġsweetest": 7567, "ĠThanks": 7568, "Keep": 7569, "Ġwadd": 7570, "ĠMaya": 7571, "Ġreass": 7572, "Ġlace": 7573, "ĠGranny": 7574, "Ġnightmares": 7575, "Ġtubes": 7576, "ĠWilly": 7577, "Ġunderstands": 7578, "Ġspoonful": 7579, "Ġnood": 7580, "Ġbathing": 7581, "ĠZoey": 7582, "asty": 7583, "Am": 7584, "Ġsweep": 7585, "Ġmanners": 7586, "crow": 7587, "Uncle": 7588, "Ġwrink": 7589, "Ġsprang": 7590, "Ġnur": 7591, "Ġbully": 7592, "ĠHolly": 7593, "Ġguide": 7594, "ĠYet": 7595, "onna": 7596, "ancy": 7597, "Ġcrew": 7598, "romise": 7599, "Jazz": 7600, "Ġbreathed": 7601, "while": 7602, "steps": 7603, "ilda": 7604, "ently": 7605, "ĠBally": 7606, "Ġbulbs": 7607, "Ġneare": 7608, "Ġgrassy": 7609, "Ġwiggly": 7610, "Ġtesting": 7611, "Ġspies": 7612, "Ġcoug": 7613, "Ġsolving": 7614, "Ġsheets": 7615, "ĠRoo": 7616, "Ġfootsteps": 7617, "ntil": 7618, "Afterwards": 7619, "Ġspeeding": 7620, "Ġfocused": 7621, "ounced": 7622, "cept": 7623, "?!\"": 7624, "Ġmesmerized": 7625, "Ġcamel": 7626, "Ġbraver": 7627, "Ġhesitant": 7628, "ĠSparkle": 7629, "Ġlicking": 7630, "Ġrushing": 7631, "ĠWell": 7632, "Ġjoining": 7633, "ĠPuppy": 7634, "Ġpolar": 7635, "Ġgreeted": 7636, "ĠMartha": 7637, "espite": 7638, "--": 7639, "ĠBubb": 7640, "Which": 7641, "Kiki": 7642, "Ġworn": 7643, "Ġmaterials": 7644, "Ġchanges": 7645, "ĠNobody": 7646, "undred": 7647, "Ġstored": 7648, "Ġbicycles": 7649, "Ġmast": 7650, "Ġanger": 7651, "Leave": 7652, "Ġpeacefully": 7653, "Ġships": 7654, "Ġspice": 7655, "Ġterrified": 7656, "Ġnuzz": 7657, "Ġgonna": 7658, "ĠShow": 7659, "Ġpolitely": 7660, "Snow": 7661, "Ġspills": 7662, "Ġscarecrow": 7663, "Ġknives": 7664, "Ġevil": 7665, "ĠMixy": 7666, "ppies": 7667, "Ġburying": 7668, "ca": 7669, "Ġhealing": 7670, "Ġaren": 7671, "Ġdonkey": 7672, "Ġaeroplanes": 7673, "freeze": 7674, "Even": 7675, "Ġseals": 7676, "Ġscattering": 7677, "Ġmiles": 7678, "ĠChewy": 7679, "amboo": 7680, "Ġdump": 7681, "Ġworrying": 7682, "Bee": 7683, "zoom": 7684, "beep": 7685, "David": 7686, "ĠLenny": 7687, "Ġpuzzled": 7688, "Ġstacked": 7689, "ĠKip": 7690, "Penny": 7691, "ĠNice": 7692, "Ġloses": 7693, "dding": 7694, "Ġtravelled": 7695, "Ġbaskets": 7696, "ĠWin": 7697, "ĠOkay": 7698, "Ġgazing": 7699, "Ġblast": 7700, "ipes": 7701, "ĠTess": 7702, "Hurry": 7703, "Ġtemperature": 7704, "Ġund": 7705, "Ġtasting": 7706, "Ġdripping": 7707, "Ġclue": 7708, "Ġbelieving": 7709, "Ġpinching": 7710, "erm": 7711, "Ġsoaking": 7712, "Ġrats": 7713, "Ġ10": 7714, "isc": 7715, "Ġsandy": 7716, "rect": 7717, "ĠIsn": 7718, "ĠSimon": 7719, "rey": 7720, "anwhile": 7721, "ĠAbi": 7722, "Binky": 7723, "Ġpunishment": 7724, "Ġbanged": 7725, "Ġhumans": 7726, "Ġcrashing": 7727, "Ġforce": 7728, "ĠAna": 7729, "Ġhundred": 7730, "Ġgest": 7731, "ĠLia": 7732, "Ġswimmer": 7733, "ĠChess": 7734, "Ġsnowflakes": 7735, "Ġrelaxing": 7736, "Ġresisted": 7737, "Ġbeeped": 7738, "ĠFairy": 7739, "Ġquarreled": 7740, "form": 7741, "elie": 7742, "Ġramp": 7743, "ĠWendy": 7744, "Ġjoins": 7745, "abby": 7746, "Ġbackpacks": 7747, "ĠPh": 7748, "years": 7749, "Ġdressing": 7750, "Ġdelayed": 7751, "Ġtoddler": 7752, "ĠLuckily": 7753, "Ġflight": 7754, "Ġcovering": 7755, "ĠTe": 7756, "orter": 7757, "Two": 7758, "Open": 7759, "By": 7760, "Ġencouragement": 7761, "Ġbenches": 7762, "Ġtoward": 7763, "Ġscraped": 7764, "Ġpurpose": 7765, "Ġfocus": 7766, "ĠJudy": 7767, "Bow": 7768, "Ġcorrect": 7769, "'.\"": 7770, "Ġlipstick": 7771, "Ġbamboo": 7772, "Spe": 7773, "Ġtwinkled": 7774, "Ġpotion": 7775, "Ġpermitted": 7776, "Ġmonths": 7777, "ĠCow": 7778, "Ġlanguages": 7779, "Ġorders": 7780, "Ġfreedom": 7781, "Tony": 7782, "Ġrisks": 7783, "Ġpoppies": 7784, "Ġmaster": 7785, "shm": 7786, "Ġnoodles": 7787, "Ġfaded": 7788, "Ġwounds": 7789, "shmallow": 7790, "rier": 7791, "Kids": 7792, "isions": 7793, "ĠJojo": 7794, "Ġcreams": 7795, "Ġbirdhouse": 7796, "Ġcells": 7797, "Ġannoyed": 7798, "ĠHerb": 7799, "opes": 7800, "Ġsniffing": 7801, "Ġcheers": 7802, "Ġadults": 7803, "Birdy": 7804, "Ġunwra": 7805, "ecca": 7806, "Buzzy": 7807, "Ġpuck": 7808, "Ġopinions": 7809, "Ġfloats": 7810, "andas": 7811, "Instead": 7812, "Ġflown": 7813, "Ġsneezes": 7814, "Ġscen": 7815, "Ġhandsome": 7816, "Ġnodding": 7817, "ĠMint": 7818, "Ġsmelling": 7819, "Ġburnt": 7820, "Ġ5": 7821, "Ġdrifted": 7822, "ider": 7823, "bage": 7824, "Ġwithin": 7825, "Ġscient": 7826, "Ġheight": 7827, "Ġdamaged": 7828, "Ġbothering": 7829, "Ġtearing": 7830, "Ġslither": 7831, "Ġpleaded": 7832, "Ġinstruments": 7833, "Ġease": 7834, "ĠAli": 7835, "da": 7836, "Back": 7837, "Ġscientist": 7838, "ĠMarie": 7839, "Mira": 7840, "Goodnight": 7841, "Ġpound": 7842, "Ġseller": 7843, "Ġhanding": 7844, "Ġgerm": 7845, "ĠSay": 7846, "Ġwasting": 7847, "Ġfiles": 7848, "Ġresults": 7849, "Ġdreamt": 7850, "ĠMabel": 7851, "bell": 7852, "Ġexplains": 7853, "Ġdestroying": 7854, "Ġbrushing": 7855, "ousy": 7856, "Ġhiss": 7857, "Ġcharacters": 7858, "ĠRazor": 7859, "ĠCr": 7860, "Carl": 7861, "Ġcertain": 7862, "ĠSte": 7863, "Pandy": 7864, "Behind": 7865, "Ġsweaty": 7866, "ĠHug": 7867, "unched": 7868, "Ġbusiness": 7869, "ĠRobbie": 7870, "Ġtalents": 7871, "Ġonward": 7872, "Try": 7873, "Ġengines": 7874, "Ġbravest": 7875, "ition": 7876, "Ġsternly": 7877, "ĠPen": 7878, "ĠJanie": 7879, "prints": 7880, "Ġpostman": 7881, "Ġmosquitoes": 7882, "Ġminds": 7883, "under": 7884, "cake": 7885, "Ġtuck": 7886, "Ġscares": 7887, "urious": 7888, "Ġstomp": 7889, "Ġapologised": 7890, "uel": 7891, "Ġmanag": 7892, "Ġsnuck": 7893, "Ġbitten": 7894, "attered": 7895, "Ġtilted": 7896, "Ġswitched": 7897, "Ġreminding": 7898, "Ġdecisions": 7899, "Ġsingers": 7900, "Ġdesper": 7901, "Ġbehavior": 7902, "ĠPoor": 7903, "ashing": 7904, "ĠJudge": 7905, "bbers": 7906, "inny": 7907, "Ġsqueaked": 7908, "Ġpeeled": 7909, "ĠEverybody": 7910, "Ġyumm": 7911, "Ġpurrs": 7912, "ĠBra": 7913, "Ġtreated": 7914, "Ġsmashed": 7915, "Ġrustling": 7916, "Ġdisplayed": 7917, "ĠUntil": 7918, "Ġneatly": 7919, "Ġmatey": 7920, "Ġplanting": 7921, "ĠBess": 7922, "Ġmarshmallow": 7923, "Ġinsp": 7924, "Ġyelped": 7925, "Ġsy": 7926, "Ġgrandparents": 7927, "Ġcracks": 7928, "Ġbellies": 7929, "aver": 7930, "Ġshines": 7931, "Ġscamp": 7932, "ĠNavy": 7933, "Ġhoo": 7934, "Ġfailed": 7935, "Ġcoloring": 7936, "ĠYoga": 7937, "line": 7938, "Ġzooms": 7939, "ĠMake": 7940, "rup": 7941, "Ġnasty": 7942, "Ġbreathing": 7943, "Ġcombed": 7944, "Ġpandas": 7945, "Ġdespite": 7946, "Ġaddress": 7947, "ighing": 7948, "Ġwaterfall": 7949, "uffin": 7950, "omp": 7951, "cc": 7952, "ĠLoop": 7953, "ĠAngel": 7954, "Tilly": 7955, "Ġwider": 7956, "Ġrobbers": 7957, "Ġantic": 7958, "Play": 7959, "Abigail": 7960, "Ġsweaters": 7961, "Ġechoed": 7962, "Ġdoorway": 7963, "ĠTodd": 7964, "evin": 7965, "Ġedges": 7966, "Ġinj": 7967, "ĠShadow": 7968, "Aunt": 7969, "Ġgap": 7970, "Ġdisobey": 7971, "ĠBlinky": 7972, "wise": 7973, "Liz": 7974, "ĠMichael": 7975, "Ġtar": 7976, "ĠFlick": 7977, "oscope": 7978, "orking": 7979, "Wake": 7980, "Ġtaped": 7981, "Ġmagnif": 7982, "ulp": 7983, "father": 7984, "Ġscolds": 7985, "Ġflaps": 7986, "Ġaction": 7987, "Ġcrawls": 7988, "ĠMindy": 7989, "Ros": 7990, "Ġswap": 7991, "Ġgobbled": 7992, "Ġbacks": 7993, "ĠGary": 7994, "Ġwarri": 7995, "ĠFishy": 7996, "ĠEddie": 7997, "Slow": 7998, "Ġsteth": 7999, "Ġsever": 8000, "Ġshinier": 8001, "Ġprobably": 8002, "Ġnewspapers": 8003, "Ġseveral": 8004, "Ġocc": 8005, "Rock": 8006, "Lena": 8007, "Ġencount": 8008, "ĠMeg": 8009, "Ġserving": 8010, "Ġquieter": 8011, "Ġplucked": 8012, "Ġconnected": 8013, "tock": 8014, "ĠShare": 8015, "Ġouch": 8016, "igger": 8017, "Ted": 8018, "Adam": 8019, "Ġgesture": 8020, "Too": 8021, "Fl": 8022, "Ġstudent": 8023, "Ġplot": 8024, "Ġdoorbell": 8025, "Ġsquaw": 8026, "Ġcares": 8027, "fire": 8028, "Ġrescuing": 8029, "Ġgrandson": 8030, "ĠSe": 8031, "Ġspy": 8032, "Ġsimply": 8033, "Ġrows": 8034, "Ġgoo": 8035, "iel": 8036, "Ġwhistles": 8037, "mies": 8038, "vant": 8039, "Shrink": 8040, "Magic": 8041, "Ġsnaps": 8042, "Ġshorter": 8043, "Ġastronauts": 8044, "Ġunpacking": 8045, "Ġcottage": 8046, "ĠTime": 8047, "Ġswo": 8048, "Ġaccidents": 8049, "ibi": 8050, "Ġswollen": 8051, "Ġmood": 8052, "ĠNut": 8053, "Steve": 8054, "abelle": 8055, "ĠZippy": 8056, "ĠMousy": 8057, "anie": 8058, "Zara": 8059, "Ġbothered": 8060, "Hannah": 8061, "Ġstethoscope": 8062, "found": 8063, "Ġtrusting": 8064, "Ġcausing": 8065, "Mat": 8066, "Mad": 8067, "Ġleapt": 8068, "Ġdresser": 8069, "aint": 8070, "Ġsou": 8071, "Ġproper": 8072, "Ġpills": 8073, "retty": 8074, "Ġthroughout": 8075, "Olive": 8076, "Ġrunner": 8077, "Ġprayers": 8078, "ĠDina": 8079, "Ġjoyful": 8080, "Thomas": 8081, "mates": 8082, "Ġlocks": 8083, "ĠPrince": 8084, "Jamie": 8085, "Ġgoats": 8086, "what": 8087, "Ġtarget": 8088, "rest": 8089, "ĠWait": 8090, "ĠKaren": 8091, "Ġdears": 8092, "ĠBang": 8093, "artled": 8094, "Red": 8095, "Ġwaddled": 8096, "Ġmunch": 8097, "Ġflips": 8098, "ĠCro": 8099, "Ġlowered": 8100, "Ġstepping": 8101, "Ġcons": 8102, "ĠJackie": 8103, "Ġteachers": 8104, "Ġcowboy": 8105, "ĠToys": 8106, "Ġinches": 8107, "Ġenvelopes": 8108, "ears": 8109, "Ġchar": 8110, "ĠVroom": 8111, "Ġexplorer": 8112, "Ġanticip": 8113, "Ġplayd": 8114, "ĠReady": 8115, "ĠRuff": 8116, "ĠRalph": 8117, "unity": 8118, "Nice": 8119, "Finn": 8120, "ĠBad": 8121, "ening": 8122, "Ġknocking": 8123, "Ġfloors": 8124, "Ġefforts": 8125, "ĠPl": 8126, "Ġuniforms": 8127, "lied": 8128, "ĠTri": 8129, "Ġaware": 8130, "Ġfootprints": 8131, "Someone": 8132, "Ġnearly": 8133, "ĠFiona": 8134, "llas": 8135, "Ġdisc": 8136, "ĠRia": 8137, "ivi": 8138, "Ġwhimp": 8139, "Ġtrot": 8140, "Ġsens": 8141, "Ġglitt": 8142, "Ġappreciation": 8143, "oosh": 8144, "Ġnecks": 8145, "Ġcollap": 8146, "Ġchecks": 8147, "Ġlapt": 8148, "Ġexcept": 8149, "Ġplug": 8150, "Ġcharge": 8151, "ĠJacky": 8152, "Ġfluttering": 8153, "Ġumbrellas": 8154, "acy": 8155, "Ġsandcastles": 8156, "ĠDavey": 8157, "Ġstatues": 8158, "ĠHoney": 8159, "omb": 8160, "iscuit": 8161, "ails": 8162, "Hoppy": 8163, "Ġshrank": 8164, "ĠAmelia": 8165, "rily": 8166, "Ġstamped": 8167, "Ġprick": 8168, "Ġfinishing": 8169, "Ġadds": 8170, "rons": 8171, "Ġstroll": 8172, "Ġhunters": 8173, "Ġdodged": 8174, "Ġchocolates": 8175, "Ġpassengers": 8176, "Ġgerms": 8177, "oger": 8178, "Ġwrigg": 8179, "Ġaprons": 8180, "Ġaisle": 8181, "Ġsets": 8182, ".'\"": 8183, "ĠGerry": 8184, "Ġweeds": 8185, "Ġnovels": 8186, "order": 8187, "Ġdemanding": 8188, "ĠTaking": 8189, "Ġscratching": 8190, "Ġmeows": 8191, "issa": 8192, "Dr": 8193, "Ġnurses": 8194, "Lucky": 8195, "Ġminding": 8196, "Ġdiscussing": 8197, "urrender": 8198, "Ġkilled": 8199, "Ġdriveway": 8200, "ĠCari": 8201, "Ġbecomes": 8202, "Ġtoolbox": 8203, "Ġlaptop": 8204, "Ġhaird": 8205, "ĠEliz": 8206, "Ġposit": 8207, "Ġattack": 8208, "ĠSadie": 8209, "ĠDespite": 8210, "Speedy": 8211, "ĠGl": 8212, "sol": 8213, "Ġscampered": 8214, "Ġbounces": 8215, "Ġsupplied": 8216, "Ġsprays": 8217, "Ġdeed": 8218, "Ġtempt": 8219, "Ġsuggestion": 8220, "Ġfriendships": 8221, "Ġburns": 8222, "Coco": 8223, "Ġslapping": 8224, "Ġclosing": 8225, "Arrr": 8226, "Ġinvites": 8227, "Ġbelongings": 8228, "Ġanticipation": 8229, "Ġspringing": 8230, "Ġform": 8231, "Ġerase": 8232, "Ġcotton": 8233, "ĠStan": 8234, "Ġtwists": 8235, "Ġrays": 8236, "Ġconc": 8237, "Ġsnuggle": 8238, "Ġforgives": 8239, "Ġmodels": 8240, "ssssssss": 8241, "Ġshall": 8242, "Ġmassages": 8243, "Ġhumming": 8244, "onnie": 8245, "Ġresponded": 8246, "Ġnewfound": 8247, "ĠNe": 8248, "Ġghosts": 8249, "Ġexpecting": 8250, "ĠShelly": 8251, "Ġcheated": 8252, "Does": 8253, "ĠWooly": 8254, "Gigi": 8255, "otte": 8256, "Ġtraveling": 8257, "Ġcond": 8258, "Ġbattle": 8259, "Ġalthough": 8260, "alloween": 8261, "Ġmommies": 8262, "Ġinvitations": 8263, "Ġcarries": 8264, "Ġaim": 8265, "Ġrefreshing": 8266, "Ġpresented": 8267, "hel": 8268, "Ġtwenty": 8269, "Ġrowed": 8270, "ĠBumpy": 8271, "ots": 8272, "Ġsquir": 8273, "rie": 8274, "arlotte": 8275, "Ġfoxes": 8276, "Ġcooper": 8277, "Ġfinal": 8278, "Ġduckling": 8279, "Ġcafe": 8280, "ĠBibi": 8281, "Pip": 8282, "Ġmarshmallows": 8283, "Ġclicked": 8284, "ĠZipper": 8285, "oor": 8286, "Ġjets": 8287, "Ġdesigning": 8288, "Ġbeaver": 8289, "five": 8290, "ĠMuffin": 8291, "ĠHalloween": 8292, "Ġmugs": 8293, "ĠWhoever": 8294, "Ġdrown": 8295, "ĠAlthough": 8296, "Ġtricycle": 8297, "Ġpicnics": 8298, "Ġoppos": 8299, "Ġconvin": 8300, "ĠRuth": 8301, "ĠExcited": 8302, "iens": 8303, "ĠCle": 8304, "po": 8305, "Ġscoops": 8306, "Ġcongratul": 8307, "ĠPop": 8308, "ĠMaddie": 8309, "Sadly": 8310, "ĠâĢĶ": 8311, "Ġtravels": 8312, "Ġaliens": 8313, "Ġtests": 8314, "Ġquestioned": 8315, "ĠSpeed": 8316, "inted": 8317, "Ġstrips": 8318, "Ġcraft": 8319, "Near": 8320, "atty": 8321, "Mouse": 8322, "covered": 8323, "Ġdefe": 8324, "ĠFlutter": 8325, "Br": 8326, "ĠBubba": 8327, "iri": 8328, "Ġfights": 8329, "roken": 8330, "Ball": 8331, "Ġopposite": 8332, "ĠBiggy": 8333, "Hmm": 8334, "Find": 8335, "Elly": 8336, "Chloe": 8337, "ĠIm": 8338, "Ġrout": 8339, "Ġgrandfather": 8340, "Ġencountered": 8341, "Ġafford": 8342, "ĠNever": 8343, "Ġdecl": 8344, "inch": 8345, "Ġraising": 8346, "iment": 8347, "Ġupside": 8348, "ĠVivi": 8349, "Meanwhile": 8350, "Jess": 8351, "Ġflashed": 8352, "Ġcalmly": 8353, "ĠRita": 8354, "Ġyawning": 8355, "Ġsincere": 8356, "Ġrealizes": 8357, "aturday": 8358, "Trust": 8359, "Choo": 8360, "Ġcrystals": 8361, "Ġbuddy": 8362, "ĠSamantha": 8363, "Ġcupcakes": 8364, "Ġbuckled": 8365, "byes": 8366, "Both": 8367, "Ġwinners": 8368, "Ġdefin": 8369, "verse": 8370, "ris": 8371, "',": 8372, "Ġweapons": 8373, "Ġcaw": 8374, "shadow": 8375, "Josh": 8376, "Ġpackages": 8377, "Ġcheat": 8378, "ĠSaturday": 8379, "Ġsacks": 8380, "Ġmesses": 8381, "Ġgoodbyes": 8382, "Ġcoach": 8383, "Ġattem": 8384, "quet": 8385, "Ġconvers": 8386, "ĠTruck": 8387, "ĠFlo": 8388, "val": 8389, "Ġdrift": 8390, "Ġcaps": 8391, "ĠMina": 8392, "ĠEva": 8393, "emies": 8394, "Ġenemies": 8395, "asha": 8396, "Ġyummiest": 8397, "Ġscrub": 8398, "Ġswallow": 8399, "Ġreturning": 8400, "rian": 8401, "Ġadmiration": 8402, "ĠSofty": 8403, "ĠMegan": 8404, "Since": 8405, "Ġsprout": 8406, "ĠLouise": 8407, "Ġunable": 8408, "ĠPlaying": 8409, "ĠAnother": 8410, "ugging": 8411, "ooks": 8412, "Ġsadder": 8413, "Ġfreezing": 8414, "Ġbrightest": 8415, "Ġbless": 8416, "ĠYawn": 8417, "Ġrespon": 8418, "ĠMan": 8419, "reverse": 8420, "Ġresponse": 8421, "Ġcosy": 8422, "ĠOh": 8423, "Ġdiamonds": 8424, "Ġbride": 8425, "stalk": 8426, "Ġreapp": 8427, "Ġopport": 8428, "Ġhonking": 8429, "Ġgarbage": 8430, "Ġwhispering": 8431, "Ġstretches": 8432, "Ġprevented": 8433, "erk": 8434, "antastic": 8435, "Ġwhoever": 8436, "Ġodd": 8437, "Ġawful": 8438, "ĠGray": 8439, "alth": 8440, "Ġweighs": 8441, "Ġjourneys": 8442, "Ġawoke": 8443, "Brrr": 8444, "Ġtraps": 8445, "Ġspices": 8446, "Ġdragonfly": 8447, "off": 8448, "Ġborn": 8449, "Ġreassured": 8450, "Ġclip": 8451, "ivia": 8452, "Ġstall": 8453, "Ġbeanstalk": 8454, "Ġargum": 8455, "Ġexamining": 8456, "Ġdefinitely": 8457, "Ġbeetles": 8458, "Ġautomobiles": 8459, "ĠMaisy": 8460, "mine": 8461, "ici": 8462, "Hop": 8463, "Ġvisitors": 8464, "Ġstuffing": 8465, "Ġplaydate": 8466, "Ġwashes": 8467, "cie": 8468, "broken": 8469, "Ġwiser": 8470, "Ġcustomer": 8471, "uper": 8472, "emma": 8473, "Rachel": 8474, "Ġtravelling": 8475, "ĠSofia": 8476, "ĠJolly": 8477, "ĠFlop": 8478, "ouquet": 8479, "Ġhairdress": 8480, "Ġbouquet": 8481, "ĠNurse": 8482, "orse": 8483, "bble": 8484, ",'": 8485, "Ġtumbled": 8486, "Ġdecoration": 8487, "Ġcampfire": 8488, "ĠElle": 8489, "Ġhonesty": 8490, "Ġbud": 8491, "vy": 8492, "ebecca": 8493, "Only": 8494, "Ġbomb": 8495, "Ġwelcoming": 8496, "Ġoffering": 8497, "Ġwealth": 8498, "Ġtroubles": 8499, "Ġoccas": 8500, "Ġincreasing": 8501, "ĠOt": 8502, "ĠJax": 8503, "ĠHello": 8504, "Ġloudest": 8505, "Ġinspired": 8506, "Ġtype": 8507, "Ġparted": 8508, "Ġgroan": 8509, "ĠChick": 8510, "ĠNutty": 8511, "irac": 8512, "Ġwhales": 8513, "ĠThunder": 8514, "ĠRicky": 8515, "yl": 8516, "Ġdeclared": 8517, "Ġcorrectly": 8518, "yler": 8519, "ooky": 8520, "fus": 8521, "Ġbeaks": 8522, "ĠQuacky": 8523, "athan": 8524, "Ġcleared": 8525, "Ġcowboys": 8526, "Ġnuzzled": 8527, "ĠDotty": 8528, "Ġprizes": 8529, "Ġexch": 8530, "Finny": 8531, "Ġwarmly": 8532, "ĠMissile": 8533, "Ġrewards": 8534, "Ġobeyed": 8535, "Ġcustomers": 8536, "Should": 8537, "Ġsirens": 8538, "Ġcomforting": 8539, "ĠFel": 8540, "shaped": 8541, "Ġconnect": 8542, "ĠFlappy": 8543, "match": 8544, "Ġtowns": 8545, "ĠMagic": 8546, "ĠBingo": 8547, "elieve": 8548, "Ġrely": 8549, "ĠVicky": 8550, "Honey": 8551, "Ġtrigger": 8552, "Ġowns": 8553, "Ġinsisting": 8554, "Ġfantastic": 8555, "Ġbends": 8556, "ĠFe": 8557, "Ġspoiling": 8558, "Ġhairdresser": 8559, "Ġsurrendered": 8560, "Ġsupporting": 8561, "Ġshares": 8562, "Ġposes": 8563, "Ġpipes": 8564, "Ġcleans": 8565, "rench": 8566, "Sun": 8567, "Outside": 8568, "Julie": 8569, "Ġwrinkled": 8570, "ĠCook": 8571, "Ġchopped": 8572, "Ġrecorder": 8573, "Ġmoons": 8574, "Ġbeaming": 8575, "unes": 8576, "ellow": 8577, "Beth": 8578, "Ġthanking": 8579, "Ġsnowy": 8580, "ĠWolf": 8581, "Ġscurry": 8582, "Ġexperien": 8583, "Ġenjoyable": 8584, "Ġactive": 8585, "Ġcoral": 8586, "ĠPiggy": 8587, "Ġenviron": 8588, "Ġdollar": 8589, "ĠKevin": 8590, "worm": 8591, "elope": 8592, "Ġloc": 8593, "Je": 8594, "Ġstreamers": 8595, "ĠBub": 8596, "udged": 8597, "ĠPatty": 8598, "ĠMother": 8599, "ĠZack": 8600, "inger": 8601, "Suzy": 8602, "Ġexamp": 8603, "Ġshorts": 8604, "Ġshooed": 8605, "Ġenvironment": 8606, "Tree": 8607, "Ġill": 8608, "Ġscent": 8609, "Ġbruises": 8610, "uster": 8611, "Ġgrat": 8612, "ĠLuc": 8613, "Bo": 8614, "Ġhisses": 8615, "Ġsteering": 8616, "Ġself": 8617, "Ġplugged": 8618, "ĠElsa": 8619, "Ġwarrior": 8620, "Ġvisits": 8621, "Ġexercises": 8622, "screen": 8623, "irl": 8624, "aptain": 8625, "Ġdangers": 8626, "Ġcuddles": 8627, "ĠRel": 8628, "ĠMin": 8629, "ĠAr": 8630, "Ġunfortunately": 8631, "Ġsquished": 8632, "Ġsigning": 8633, "ĠLight": 8634, "bee": 8635, "Ray": 8636, "Ġpilots": 8637, "Ġdisappoint": 8638, "munk": 8639, "Ġgratitude": 8640, "Ġapplauding": 8641, "Ġproviding": 8642, "ĠMoppy": 8643, "alf": 8644, "Ġtickles": 8645, "Ġting": 8646, "ĠRub": 8647, "Grow": 8648, "Ġstorms": 8649, "Ġnights": 8650, "Ġjud": 8651, "Ġconvinced": 8652, "Ġbadger": 8653, "ĠElsie": 8654, "Ġyoun": 8655, "Ġresponsib": 8656, "Ġchoosing": 8657, "ĠKelly": 8658, "Joy": 8659, "Ġyoungest": 8660, "Ġnearest": 8661, "Ġbrains": 8662, "Ġactivity": 8663, "Abby": 8664, "Ġexploded": 8665, "Ġcoughed": 8666, "Ġarranged": 8667, "Claire": 8668, "Ġrewarding": 8669, "ĠTre": 8670, "ĠFly": 8671, "pr": 8672, "good": 8673, "erpiece": 8674, "Ġsunscreen": 8675, "Ġpeep": 8676, "Ġbond": 8677, "ĠFloppy": 8678, "asers": 8679, "Mon": 8680, "ĠTweety": 8681, "ĠSweet": 8682, "ĠKaty": 8683, "ĠJoan": 8684, "ĠSal": 8685, "ilities": 8686, "Ġannoying": 8687, "sn": 8688, "Ġsoapy": 8689, "meow": 8690, "Splash": 8691, "Ġrails": 8692, "Ġlaces": 8693, "Ġthreads": 8694, "Ġtapping": 8695, "Ġoffic": 8696, "Ġappreciated": 8697, "ĠPine": 8698, "ĠPhil": 8699, "boards": 8700, "Ġweighing": 8701, "Ġheartbroken": 8702, "Ġemerged": 8703, "Ġcongratulated": 8704, "ĠPick": 8705, "Danger": 8706, "Ġtin": 8707, "ĠSil": 8708, "Ġcrocodiles": 8709, "Ġclerk": 8710, "Ġscram": 8711, "Ġattempt": 8712, "ĠNancy": 8713, "water": 8714, "Ahoy": 8715, "Ġsnug": 8716, "Ġmessed": 8717, "Ġexample": 8718, "Ġdial": 8719, "ĠKay": 8720, "ĠAny": 8721, "Momma": 8722, "Ġhooks": 8723, "ĠJonny": 8724, "Ġtops": 8725, "Ġchipmunk": 8726, "Ġsoot": 8727, "Ġguarding": 8728, "Ġbathed": 8729, "Ġmanager": 8730, "ĠTippy": 8731, "ortunately": 8732, "ĠMicroscope": 8733, "Friends": 8734, "ĠDe": 8735, "etah": 8736, "Snowy": 8737, "Ġmasterpiece": 8738, "ĠBaa": 8739, "Ġerasers": 8740, "Ġtips": 8741, "Ġfinishes": 8742, "Ġfet": 8743, "Ġcommon": 8744, "ĠTomorrow": 8745, "mbers": 8746, "Ġtrotted": 8747, "Ġnibbled": 8748, "Ġmembers": 8749, "Ġdigs": 8750, "People": 8751, "Ġkinder": 8752, "Ġcheetah": 8753, "Ġparticularly": 8754, "Ġchews": 8755, "Ġblond": 8756, "ircle": 8757, "Ġrips": 8758, "Ġbeast": 8759, "Lizzy": 8760, "Ġargument": 8761, "ative": 8762, "Ġfaith": 8763, "ĠHelping": 8764, "Ġearned": 8765, "Anne": 8766, "Ġobserving": 8767, "Ġforgiveness": 8768, "ĠJoke": 8769, "ĠCici": 8770, "chievous": 8771, "Ġinstantly": 8772, "Ġfishes": 8773, "Ġexperienced": 8774, "Ġcurl": 8775, "Ġcheaper": 8776, "ĠJumpy": 8777, "Rosie": 8778, "Ġmischievous": 8779, "Ġgenerosity": 8780, "Ġcages": 8781, "ĠTwist": 8782, "Gr": 8783, "Baa": 8784, "Ġmeowing": 8785, "Ġfoam": 8786, "mered": 8787, "Cindy": 8788, "Ġstores": 8789, "Ġgrandd": 8790, "ĠAg": 8791, "etchup": 8792, "Ġmattered": 8793, "Ġteles": 8794, "Ġpasses": 8795, "Ġlimp": 8796, "Sque": 8797, "Ġsleeps": 8798, "iolet": 8799, "Ġbreaths": 8800, "ordinary": 8801, "ettle": 8802, "ending": 8803, "Ġtrans": 8804, "Ġrin": 8805, "Ġgasps": 8806, "ĠFreddie": 8807, "Got": 8808, "Ġrumbling": 8809, "Ġhatch": 8810, "ĠMomma": 8811, "over": 8812, "abra": 8813, "Ġgrassho": 8814, "Ġaccomplished": 8815, "ĠHopper": 8816, "acing": 8817, "Ġthump": 8818, "Ġtelescope": 8819, "Ġstrum": 8820, "Ġsmartest": 8821, "Ġmats": 8822, "Ġwhined": 8823, "Ġmoat": 8824, "Gina": 8825, "Ġscrambled": 8826, "Ġjugg": 8827, "Ġfarmers": 8828, "ĠIce": 8829, "Ġdrip": 8830, "Robbie": 8831, "Ġsyrup": 8832, "Ġgardens": 8833, "Ġcollapsed": 8834, "Ġangrily": 8835, "ĠMore": 8836, "ouraged": 8837, "idey": 8838, "Ġvegg": 8839, "Ġstyles": 8840, "Ġforests": 8841, "Ġexperiences": 8842, "Ġdiscoveries": 8843, "hole": 8844, "Ġtor": 8845, "Ġmedals": 8846, "Ġtypes": 8847, "Ġotters": 8848, "Ġmeaning": 8849, "Ġfaint": 8850, "Ġconqu": 8851, "ĠDoes": 8852, "pit": 8853, "adabra": 8854, "acock": 8855, "Ġsnapping": 8856, "Ġhardest": 8857, "Ġfif": 8858, "ering": 8859, "Ġmovements": 8860, "Ġexpression": 8861, "Ġsurv": 8862, "Ġchilly": 8863, "Ġbubbly": 8864, "Ġaffect": 8865, "Pinky": 8866, "Ġvests": 8867, "Ġunfair": 8868, "Ġcourt": 8869, "Whenever": 8870, "Ġtoothbrush": 8871, "Ġscores": 8872, "Ġextraordinary": 8873, "Never": 8874, "Ġattitude": 8875, "Ġvibr": 8876, "Ġhorri": 8877, "Ġbluebird": 8878, "ĠMonkey": 8879, "mel": 8880, "lls": 8881, "Mo": 8882, "Ġspears": 8883, "Ġketchup": 8884, "ĠBerry": 8885, "Mother": 8886, "Ġsooner": 8887, "Ġgrasshopper": 8888, "Ġbehaviour": 8889, "Ġpatches": 8890, "Ġhabit": 8891, "yd": 8892, "erts": 8893, "Karen": 8894, "Ġpokes": 8895, "Ġmomma": 8896, "Ġafar": 8897, "ĠAshley": 8898, "lo": 8899, "ieves": 8900, "Jacob": 8901, "Ġthicker": 8902, "Ġscri": 8903, "ĠFriend": 8904, "Jon": 8905, "Ġsqueezes": 8906, "Ġslithered": 8907, "Ġshrunk": 8908, "Ġclassmates": 8909, "ĠTerry": 8910, "ĠFle": 8911, "Ġicky": 8912, "Ġprickly": 8913, "Ġglittering": 8914, "Ġexpert": 8915, "Ġtopp": 8916, "Ġkneeling": 8917, "Ġannounced": 8918, "ĠSuper": 8919, "ĠRiri": 8920, "elling": 8921, "Ġpeacock": 8922, "Ġmarking": 8923, "ctric": 8924, "Ġcosts": 8925, "ĠCally": 8926, "ĠAchoo": 8927, "Ġzigzags": 8928, "Ġwatermel": 8929, "Ġthieves": 8930, "Ġskirts": 8931, "Ġjumper": 8932, "Ġhood": 8933, "Ġacts": 8934, "ĠZog": 8935, "ĠApp": 8936, "Ġwolves": 8937, "ĠSwim": 8938, "ĠCloud": 8939, "Papa": 8940, "Ġthumbs": 8941, "Ġsqueaky": 8942, "Ġconcer": 8943, "Ġcocoon": 8944, "Ġwoodcut": 8945, "Ġboards": 8946, "ĠEliza": 8947, "ĠBecky": 8948, "Ġservant": 8949, "idence": 8950, "affle": 8951, "Ġcheating": 8952, "ĠJason": 8953, "bu": 8954, "Ġtrading": 8955, "Ġraking": 8956, "cat": 8957, "Jessie": 8958, "Ġexplaining": 8959, "ĠEric": 8960, "rick": 8961, "Ġtidied": 8962, "Ġbiscuit": 8963, "Ġlunchtime": 8964, "Ġluckily": 8965, "ĠAc": 8966, "anced": 8967, "Frog": 8968, "ĠPuffy": 8969, "Ġspilling": 8970, "ĠDay": 8971, "Fire": 8972, "Ġtransform": 8973, "Ġdesserts": 8974, "ĠUse": 8975, "ĠMaddy": 8976, "ĠDaniel": 8977, "ĠAnimal": 8978, "âĢ¦": 8979, "ror": 8980, "ĠPig": 8981, "ĠMine": 8982, "ĠStill": 8983, "ĠGill": 8984, "rough": 8985, "amma": 8986, "Ġmessages": 8987, "Ġmirac": 8988, "ĠCaptain": 8989, "idy": 8990, "Ġwindowsill": 8991, "Ġchill": 8992, "Ġbeating": 8993, "ĠTammy": 8994, "ĠLung": 8995, "ĠGilly": 8996, "oot": 8997, "Ġseeking": 8998, "Ġactor": 8999, "ĠRainbow": 9000, "ĠLina": 9001, "ĠWilliam": 9002, "sess": 9003, "its": 9004, "ĠMath": 9005, "pril": 9006, "Any": 9007, "Ġforeshadow": 9008, "war": 9009, "acles": 9010, "Bluey": 9011, "Ġleans": 9012, "ĠStep": 9013, "ĠPinch": 9014, "ĠHi": 9015, "racadabra": 9016, "Freeze": 9017, "Bounce": 9018, "Ġwatermelon": 9019, "Ġhissing": 9020, "Ġflashing": 9021, "Ġdev": 9022, "Ġcloths": 9023, "ĠTiger": 9024, "ĠMonster": 9025, "ĠFrankie": 9026, "Ġwinding": 9027, "Ġpositive": 9028, "Ġfunn": 9029, "Ġdiscouraged": 9030, "ĠWil": 9031, "pop": 9032, "Ġwoodcutter": 9033, "Ġforts": 9034, "Ġdripped": 9035, "Ġcompete": 9036, "Ġteapot": 9037, "Ġpressing": 9038, "Ġdisagreeing": 9039, "icking": 9040, "Ġglimmering": 9041, "Ġveggies": 9042, "Ġtrusts": 9043, "Ġtidying": 9044, "Ġkangaroos": 9045, "ĠPeep": 9046, "Ġtempted": 9047, "Ġlanding": 9048, "ĠFlora": 9049, "Ġdock": 9050, "Ġshallow": 9051, "Ġoverw": 9052, "Ġformed": 9053, "lers": 9054, "Ġrack": 9055, "Ġfade": 9056, "ĠTooth": 9057, "flowers": 9058, "Ġworst": 9059, "Ġelectric": 9060, "Ġcops": 9061, "eling": 9062, "Nothing": 9063, "Ġapology": 9064, "iving": 9065, "creams": 9066, "ai": 9067, "Ġsleds": 9068, "ĠSilver": 9069, "ĠLife": 9070, "upid": 9071, "Ġcomets": 9072, "Ġass": 9073, "Owl": 9074, "Ġsav": 9075, "ĠShark": 9076, "ĠMag": 9077, "ĠJelly": 9078, "Bug": 9079, "Ġsituations": 9080, "Ġpapa": 9081, "Ġofficers": 9082, "Ġconversation": 9083, "Ġ4": 9084, "Rain": 9085, "ĠRoger": 9086, "ĠCharlotte": 9087, "storm": 9088, "aye": 9089, "Ġsuns": 9090, "âĢĿ,": 9091, "Ġzips": 9092, "Ġstructures": 9093, "Ġscurrying": 9094, "Ġpizzas": 9095, "Ġoverwhel": 9096, "Ġmiller": 9097, "Ġding": 9098, "ĠButter": 9099, "Ġgranddaughter": 9100, "Ġfoggy": 9101, "ĠOlivia": 9102, "ĠHurry": 9103, "ĠAmber": 9104, "Zoe": 9105, "ĠJaney": 9106, "Ġwebs": 9107, "Ġdeserved": 9108, "Rabbit": 9109, "Ġopportunity": 9110, "Ġcubs": 9111, "ĠYummy": 9112, "ĠSpidey": 9113, "ĠSasha": 9114, "ĠMixie": 9115, "ĠBuster": 9116, "Ġsnorted": 9117, "Ġrhino": 9118, "Ġdifferences": 9119, "ĠGold": 9120, "Ġquacking": 9121, "ĠTell": 9122, "ifully": 9123, "ended": 9124, "Fifi": 9125, "Ġheaven": 9126, "ĠBirds": 9127, "Ġunlo": 9128, "Ġlevers": 9129, "Ġinchworm": 9130, "Ġinter": 9131, "Ġapproach": 9132, "ĠTyler": 9133, "ssess": 9134, "Ġseagulls": 9135, "Ġpossess": 9136, "Ġcooperate": 9137, "ĠRufus": 9138, "ĠFelix": 9139, "ĠBoom": 9140, "welcome": 9141, "sers": 9142, "ragon": 9143, "of": 9144, "?âĢĿ.": 9145, "andra": 9146, "Ġpose": 9147, "Ġdisappointment": 9148, "ĠSmoke": 9149, "ocular": 9150, "Ġspeaks": 9151, "Ġsneaks": 9152, "snap": 9153, "Ġbinocular": 9154, "Ġartwork": 9155, "Ġsurfed": 9156, "Ġscowl": 9157, "Ġanswering": 9158, "ĠSnake": 9159, "Ġshortcut": 9160, "ĠGrand": 9161, "Ġsipped": 9162, "Ġrobin": 9163, "Ġdep": 9164, "Climb": 9165, "Ġarrest": 9166, "ĠInky": 9167, "ssy": 9168, "Ġunwrapped": 9169, "Ġribbit": 9170, "Ġreun": 9171, "Ġamused": 9172, "ĠAmanda": 9173, "ugar": 9174, "Ġrepeats": 9175, "Ġpepperoni": 9176, "Ġapplause": 9177, "Ġkeyhole": 9178, "Ġcheckout": 9179, "ĠMae": 9180, "ĠCars": 9181, "Lia": 9182, "Deal": 9183, "Ġvisitor": 9184, "Ġstriking": 9185, "Ġpuppets": 9186, "Ġpaddling": 9187, "Eat": 9188, "Ġunz": 9189, "Ġcroaked": 9190, "Ġattacked": 9191, "ĠCircle": 9192, "ĠBrian": 9193, "orsie": 9194, "Ġspooky": 9195, "ĠOtto": 9196, "ĠGus": 9197, "Each": 9198, "Ġgroaned": 9199, "Ġbeautifully": 9200, "ĠJean": 9201, "gar": 9202, "cidents": 9203, "Ġswimsuits": 9204, "Ġconsider": 9205, "Ġchecking": 9206, "uses": 9207, "ĠYellow": 9208, "jest": 9209, "Ġwaters": 9210, "Ġgroom": 9211, "ĠSqueak": 9212, "ĠSlinky": 9213, "yle": 9214, "Ġinvent": 9215, "Luke": 9216, "Ġnets": 9217, "Ġexams": 9218, "otion": 9219, "ets": 9220, "Ġdrying": 9221, "ĠRebecca": 9222, "udy": 9223, "artin": 9224, "anish": 9225, "agine": 9226, "Ġshrugs": 9227, "Ġlump": 9228, "ĠAuntie": 9229, "sie": 9230, "lest": 9231, "Ġsobbing": 9232, "Ġshyly": 9233, "Ġshoots": 9234, "Ġhonks": 9235, "Ġheels": 9236, "Ġcheerfully": 9237, "ĠSince": 9238, "ili": 9239, "hny": 9240, "esses": 9241, "Ġshh": 9242, "Ġchin": 9243, "Ġwhimpered": 9244, "Ġhealthier": 9245, "Ġhangs": 9246, "icious": 9247, "Milo": 9248, "ĠMus": 9249, "Ġcaterpillars": 9250, "izzes": 9251, "Slowly": 9252, "Ġsquinted": 9253, "Ġmagnifying": 9254, "Ġfries": 9255, "ĠRatty": 9256, "Ġfascinating": 9257, "Ġblamed": 9258, "ĠFind": 9259, "ulpture": 9260, "ching": 9261, "Ġsculpture": 9262, "Ġfrustration": 9263, "ĠTip": 9264, "ouched": 9265, "Ġshimmering": 9266, "ĠPenelope": 9267, "Ġposs": 9268, "ĠPeace": 9269, "edic": 9270, "Sharing": 9271, "Ġsuck": 9272, "Ġpleas": 9273, "Ġnumbered": 9274, "Ġnibble": 9275, "ĠWaffle": 9276, "othy": 9277, "ibbles": 9278, "ellie": 9279, "amil": 9280, "Ġflowing": 9281, "Ġbaa": 9282, "hings": 9283, "Pepper": 9284, "Ġraked": 9285, "Ġgrumbled": 9286, "ĠOff": 9287, "that": 9288, "Bubbles": 9289, "Ġbuilder": 9290, "racted": 9291, "eat": 9292, "Ġswaying": 9293, "Ġpetting": 9294, "Ġguards": 9295, "Ġfacing": 9296, "ĠWoolly": 9297, "Ġsprinkle": 9298, "Ġmysteries": 9299, "Ġdetails": 9300, "ĠHar": 9301, "sey": 9302, "Ġsnort": 9303, "Ġflock": 9304, "Ġenemy": 9305, "ĠBoat": 9306, "Ġtextures": 9307, "Ġtablet": 9308, "Ġgoodies": 9309, "ĠCurious": 9310, "ĠBarry": 9311, "Yesterday": 9312, "Ġwig": 9313, "Ġpopping": 9314, "Ġwildflowers": 9315, "Ġstacks": 9316, "Ġmarve": 9317, "Ġfans": 9318, "Ġcrops": 9319, "Ġcountries": 9320, "ĠJenn": 9321, "ĠGracie": 9322, "how": 9323, "Ġknobs": 9324, "ĠTessa": 9325, "ĠSeeing": 9326, "Ġlocal": 9327, "Ġbushy": 9328, "Ġstew": 9329, "Ġpeeped": 9330, "Ġhunting": 9331, "Ġdrowned": 9332, "Ġbowing": 9333, "Ġbinoculars": 9334, "Ġangrier": 9335, "ĠBubu": 9336, "Ġmaps": 9337, "ĠMatch": 9338, "Ġquizzes": 9339, "Ġniece": 9340, "Ġmoonlight": 9341, "ĠGlow": 9342, "Ġoutfits": 9343, "ĠJohnson": 9344, "ĠDeal": 9345, "OO": 9346, "Ġwhoosh": 9347, "Ġweaker": 9348, "Ġwrench": 9349, "Ġmindful": 9350, "Ġcrowded": 9351, "cycles": 9352, "Squ": 9353, "Ġendings": 9354, "ĠBeef": 9355, "oll": 9356, "Im": 9357, "Ġproperty": 9358, "Ġhesitation": 9359, "Ġflashes": 9360, "amiliar": 9361, "Ġunless": 9362, "Ġimaginations": 9363, "Ġfond": 9364, "Ġcarts": 9365, "Ġboil": 9366, "Ġability": 9367, "ĠOxy": 9368, "ĠAndrew": 9369, "getic": 9370, "Ġglared": 9371, "ĠRight": 9372, "ĠAccidents": 9373, "stand": 9374, "Ġunfamiliar": 9375, "Ġspaces": 9376, "Ġmicrow": 9377, "Ġknit": 9378, "Ġhaven": 9379, "Ġfolds": 9380, "ths": 9381, "saw": 9382, "Tuna": 9383, "Ġresponsibility": 9384, "Ġdirtier": 9385, "ĠPet": 9386, "bank": 9387, "Ġpouch": 9388, "Ġmicrowave": 9389, "Ġdesks": 9390, "ibly": 9391, "Bless": 9392, "Ġcracker": 9393, "rnie": 9394, "Ġswapped": 9395, "Ġmember": 9396, "Ġdate": 9397, "Ġaston": 9398, "ĠOxygen": 9399, "ĠRavi": 9400, "lt": 9401, "free": 9402, "Want": 9403, "Cra": 9404, "Ġwhine": 9405, "Ġsoftened": 9406, "Ġrebu": 9407, "Ġdoorstep": 9408, "Ġdisappearing": 9409, "ĠPeggy": 9410, "ĠHelen": 9411, "ĠBun": 9412, "Ġquacks": 9413, "Ġnatur": 9414, "ĠRing": 9415, "ĠChip": 9416, "scar": 9417, "Ġwriter": 9418, "Ġlistener": 9419, "ĠToo": 9420, "ĠFix": 9421, "Ġpriv": 9422, "Ġblushed": 9423, "ĠSpicy": 9424, "venir": 9425, "Ġpalms": 9426, "Ġnoticing": 9427, "upt": 9428, "repe": 9429, "poison": 9430, "Ġsouvenir": 9431, "ĠPast": 9432, "repeat": 9433, "entr": 9434, "Ġlaws": 9435, "Ġdisaster": 9436, "ĠTra": 9437, "ĠRes": 9438, "ĠGabby": 9439, "str": 9440, "reg": 9441, "endant": 9442, "Robby": 9443, "Ġphones": 9444, "ala": 9445, "Ava": 9446, "Ġconfidence": 9447, "ĠLi": 9448, "ĠCoal": 9449, "ĠCut": 9450, "ĠBert": 9451, "Ġtimid": 9452, "Ġstirs": 9453, "Ġoverwhelmed": 9454, "ingly": 9455, "Being": 9456, "Ġmayor": 9457, "Ġflick": 9458, "guess": 9459, "asmine": 9460, "Che": 9461, "Ġtugging": 9462, "ĠPretty": 9463, "ĠMole": 9464, "lor": 9465, "Ġuntangle": 9466, "Ġsatisfa": 9467, "Ġowls": 9468, "Ġmailing": 9469, "Ġinjured": 9470, "Whose": 9471, "Ġsatisfaction": 9472, "Ġconcentr": 9473, "ĠWhite": 9474, "ĠImmediately": 9475, "ĠBooks": 9476, "Fly": 9477, "ĠMarch": 9478, "ĠAnimals": 9479, "mers": 9480, "Sc": 9481, "Mittens": 9482, "Ġlim": 9483, "ĠEat": 9484, "this": 9485, "Mabel": 9486, "Ġprank": 9487, "ĠWonder": 9488, "ĠNora": 9489, "ĠBonnie": 9490, "Wiggly": 9491, "Ġhooves": 9492, "ĠTriangle": 9493, "ĠRun": 9494, "ĠPot": 9495, "ĠMelissa": 9496, "ĠKn": 9497, "well": 9498, "Jeff": 9499, "Ġfixer": 9500, "ĠStartled": 9501, "ĠSir": 9502, "ĠClean": 9503, "ĠClose": 9504, "icate": 9505, "Ġsnar": 9506, "Ġclut": 9507, "lish": 9508, "bling": 9509, "Excited": 9510, "Ġskies": 9511, "Ġinstrument": 9512, "ĠTrucky": 9513, "Ġcapt": 9514, "ĠMatilda": 9515, "ĠHorsie": 9516, "ĠFaye": 9517, "adually": 9518, "Ġdisagre": 9519, "iky": 9520, "Ġwriggled": 9521, "Ġstains": 9522, "Ġrinse": 9523, "Ġpecks": 9524, "Ġcreak": 9525, "ĠSleepy": 9526, "Susan": 9527, "Ġshave": 9528, "Ġbumping": 9529, "ĠIcy": 9530, "ĠHeli": 9531, "ĠCrabby": 9532, "ulf": 9533, "Ġswirl": 9534, "Ġruff": 9535, "Ġbending": 9536, "cessary": 9537, "Playing": 9538, "Close": 9539, "Ġsandpit": 9540, "Ġexploration": 9541, "Ġchatted": 9542, "ĠScissors": 9543, "Make": 9544, "Ġrods": 9545, "Ġlever": 9546, "Ġfacts": 9547, "Sm": 9548, "Ġattaching": 9549, "ĠCandy": 9550, "Ġfooled": 9551, "Ġburger": 9552, "ĠBro": 9553, "Ġglows": 9554, "Ġconcerned": 9555, "Ġclearly": 9556, "Maya": 9557, "Ġsalon": 9558, "Ġreversing": 9559, "Ġlava": 9560, "Ġcompan": 9561, "Ġcertainly": 9562, "els": 9563, "Wally": 9564, "Ġsmelt": 9565, "Ġmotorcycles": 9566, "Ġfetched": 9567, "Ġcirc": 9568, "Ġtroll": 9569, "Ġtunes": 9570, "Ġsometime": 9571, "Ġprod": 9572, "Ġoldest": 9573, "Ġfireflies": 9574, "Ġkissing": 9575, "Ġchallenges": 9576, "Ġblonde": 9577, "Kayla": 9578, "Ġwarmed": 9579, "ĠBobbie": 9580, "Ġunlocking": 9581, "Ġnatural": 9582, "Ġdifferently": 9583, "Ġbound": 9584, "ĠLots": 9585, "urple": 9586, "sa": 9587, "erg": 9588, "Tara": 9589, "Dino": 9590, "Abracadabra": 9591, "Ġrubb": 9592, "Ġriverbank": 9593, "Ġdetect": 9594, "Ġcutter": 9595, "Ġcupcake": 9596, "Ġconquered": 9597, "Ring": 9598, "Ġhates": 9599, "Ġalley": 9600, "ĠFlap": 9601, "sorry": 9602, "Ġswirls": 9603, "Ġsends": 9604, "Ġrealise": 9605, "ĠOpen": 9606, "ĠFlopsy": 9607, "Julia": 9608, "Isn": 9609, "Ġwiggling": 9610, "Ġsensation": 9611, "Ġmunched": 9612, "Ġbanging": 9613, "ĠCammy": 9614, "Ġtoppings": 9615, "Ġhippos": 9616, "Ġfist": 9617, "Ġclips": 9618, "ĠReliable": 9619, "Doctor": 9620, "Ġswayed": 9621, "Ġstings": 9622, "Ġrobe": 9623, "Ġmiracle": 9624, "Ġhalves": 9625, "Ġbrakes": 9626, "ĠGreeny": 9627, "Hope": 9628, "Fish": 9629, "Ġsurvive": 9630, "Ġostriches": 9631, "ĠPink": 9632, "ĠClimb": 9633, "ula": 9634, "keepers": 9635, "bert": 9636, "Michael": 9637, "Ġtorto": 9638, "Ġotherwise": 9639, "Ġembra": 9640, "Ġcrushed": 9641, "Ġbubbling": 9642, "Ġtents": 9643, "ĠLooking": 9644, "ani": 9645, "Ġrepairing": 9646, "ĠOf": 9647, "Ġvinegar": 9648, "Ġstretchy": 9649, "Ġrubbish": 9650, "Ġlizards": 9651, "ĠWorking": 9652, "ĠFlicker": 9653, "Ġpassenger": 9654, "ĠEd": 9655, "aste": 9656, "Many": 9657, "Ġvibrant": 9658, "Ġtortoise": 9659, "Ġpounced": 9660, "ĠWhich": 9661, "Suzie": 9662, "Ġscene": 9663, "ĠRh": 9664, "ĠGrump": 9665, "gr": 9666, "Ġmooed": 9667, "Ġglided": 9668, "Ġdesperately": 9669, "Ġbas": 9670, "Ġsnip": 9671, "Ġpoop": 9672, "Ġmajest": 9673, "Ġintently": 9674, "Ġcopied": 9675, "Ġcalmer": 9676, "ĠSundays": 9677, "ĠLightning": 9678, "rap": 9679, "net": 9680, "Ġwoken": 9681, "Ġtwel": 9682, "Ġrags": 9683, "Ġjudges": 9684, "Ġjoyfully": 9685, "Ġjing": 9686, "Ġcoolest": 9687, "ĠPer": 9688, "smelling": 9689, "Ġlectures": 9690, "Ġglob": 9691, "ĠJody": 9692, "lyn": 9693, "isible": 9694, "Ġhips": 9695, "Ġcousins": 9696, "Ġastonished": 9697, "Ġcapes": 9698, "ĠOutside": 9699, "ĠLu": 9700, "uno": 9701, "Eww": 9702, "Ġsuccessfully": 9703, "Ġspeaker": 9704, "Ġreunited": 9705, "Ġinvisible": 9706, "Ġguesses": 9707, "Ġgooey": 9708, "Ġarrives": 9709, "why": 9710, "Ġtwelve": 9711, "Ġbats": 9712, "urity": 9713, "Mikey": 9714, "Ġgoodness": 9715, "Ġcomputers": 9716, "Ġchatting": 9717, "ĠCarla": 9718, "nded": 9719, "mie": 9720, "Ġstacking": 9721, "Ġsnowflake": 9722, "istory": 9723, "Ġreappeared": 9724, "Ġracer": 9725, "Ġpounds": 9726, "Ġparks": 9727, "Ġdesperate": 9728, "Ġcompanion": 9729, "Ġcommun": 9730, "bed": 9731, "Zigzag": 9732, "Ol": 9733, "Ġluckiest": 9734, "Ġlevel": 9735, "Ġdou": 9736, "Ġank": 9737, "Ġtale": 9738, "Ġstomachs": 9739, "Ġsells": 9740, "Ġgall": 9741, "Ġdumb": 9742, "Ġcrickets": 9743, "ĠSugar": 9744, "iggles": 9745, "Nick": 9746, "Ġwinds": 9747, "Ġsus": 9748, "Ġgates": 9749, "Ġdisobeyed": 9750, "Ġdisagreement": 9751, "ĠSteven": 9752, "hile": 9753, "More": 9754, "Ġpearls": 9755, "Ġhoses": 9756, "Ġcrisp": 9757, "Ġawhile": 9758, "ĠWhee": 9759, "ites": 9760, "Lou": 9761, "Ġsoda": 9762, "Ġpopsic": 9763, "Ġloyalty": 9764, "ĠOrange": 9765, "Linda": 9766, "Ġtongues": 9767, "ĠRosa": 9768, "usion": 9769, "rent": 9770, "Ġrider": 9771, "ĠCD": 9772, "Ooh": 9773, "ĠBlack": 9774, "pan": 9775, "Ġsurely": 9776, "Ġabo": 9777, "ĠLaw": 9778, "ĠAnnabelle": 9779, "des": 9780, "colored": 9781, "Ġoccasion": 9782, "Ġbund": 9783, "rum": 9784, "izza": 9785, "dog": 9786, "!âĢĻ": 9787, "Ġstun": 9788, "Ġguitars": 9789, "Ġchicks": 9790, "chief": 9791, "Ġseparating": 9792, "Ġseashe": 9793, "Ġrebuild": 9794, "Ġintelligence": 9795, "Ġalligators": 9796, "Ġaboard": 9797, "ĠRaven": 9798, "ĠIron": 9799, "ĠApril": 9800, "Found": 9801, "Ġcroak": 9802, "Ġcreep": 9803, "ĠWinky": 9804, "ĠViolet": 9805, "aids": 9806, "Something": 9807, "Catch": 9808, "Ġlearner": 9809, "Ġcaution": 9810, "Ġcuc": 9811, "ĠOld": 9812, "ĠCare": 9813, "solut": 9814, "Ġwhines": 9815, "Ġspiky": 9816, "Ġrevealing": 9817, "Ġrins": 9818, "ĠUni": 9819, "working": 9820, "Ġtickling": 9821, "Ġescap": 9822, "ĠSettle": 9823, "Ġunderwater": 9824, "Ġglobe": 9825, "Ġcrouched": 9826, "ĠRoar": 9827, "ĠCoby": 9828, "ĠBa": 9829, "udge": 9830, "everse": 9831, "!'.": 9832, "Ġprog": 9833, "Ġblooms": 9834, "Ġappearance": 9835, "Ġ''": 9836, "urricane": 9837, "stop": 9838, "seph": 9839, "ifer": 9840, "fived": 9841, "Jan": 9842, "Ġstrokes": 9843, "Ġleaking": 9844, "Ġhatched": 9845, "Ġguardian": 9846, "ĠSocky": 9847, "ealing": 9848, "arning": 9849, "Ġzookeepers": 9850, "Ġtant": 9851, "Ġroutine": 9852, "Ġpersistence": 9853, "Ġdoves": 9854, "Snap": 9855, "Sleep": 9856, "Chicky": 9857, "Ġtaps": 9858, "Ġsquashes": 9859, "Ġquilt": 9860, "Ġpainful": 9861, "Ġlighting": 9862, "Ġblame": 9863, "Ġadmit": 9864, "Toys": 9865, "Ahh": 9866, "Ġtempting": 9867, "Ġshattered": 9868, "Ġripp": 9869, "Ġmold": 9870, "Ġdeeply": 9871, "ĠPuff": 9872, "ggles": 9873, "Three": 9874, "Ralph": 9875, "Matt": 9876, "Ġthrone": 9877, "Ġsquirted": 9878, "Ġsecurity": 9879, "Ġpeeks": 9880, "Ġelectricity": 9881, "Ġcentre": 9882, "Ġburgers": 9883, "ĠSpin": 9884, "emon": 9885, "con": 9886, "Ġrealizing": 9887, "Ġcooks": 9888, "Ġallowing": 9889, "ĠLiam": 9890, "ushes": 9891, "orth": 9892, "oss": 9893, "cker": 9894, "Jessica": 9895, "Ġlar": 9896, "Ġexchange": 9897, "Ġchopping": 9898, "Share": 9899, "Sophia": 9900, "Ġsweetly": 9901, "ĠRace": 9902, "ĠQuickly": 9903, "ĠAlf": 9904, "vering": 9905, "Ġsweeter": 9906, "Ġrinsed": 9907, "Ġglittered": 9908, "isapp": 9909, "Zero": 9910, "Sw": 9911, "Ġmelts": 9912, "Ġmelody": 9913, "Ġgoggles": 9914, "Ġfurious": 9915, "Ġenergetic": 9916, "Ġdefeated": 9917, "Ġbuilders": 9918, "ĠInch": 9919, "asy": 9920, "Ġwaded": 9921, "Ġtantrum": 9922, "Ġsniffled": 9923, "Ġchooses": 9924, "ĠOtherwise": 9925, "ĠCats": 9926, "ĠComet": 9927, "Ġcontainer": 9928, "Ġcompeting": 9929, "ĠGiant": 9930, "eremy": 9931, "bang": 9932, "ĠSharp": 9933, "ĠMila": 9934, "arted": 9935, "Ġundone": 9936, "Ġseriously": 9937, "Ġprotection": 9938, "Ġlarger": 9939, "Ġlull": 9940, "Ġhudd": 9941, "Ġattempts": 9942, "ĠRara": 9943, "ĠPark": 9944, "ĠDuke": 9945, "Shoo": 9946, "Lizzie": 9947, "Ġtossing": 9948, "Ġhelicopters": 9949, "Ġcooed": 9950, "Ġcluck": 9951, "Ġbuckles": 9952, "ĠWhale": 9953, "ĠPinchy": 9954, "ĠCher": 9955, "Sweet": 9956, "ĠTears": 9957, "ĠSmo": 9958, "ĠOver": 9959, "solutely": 9960, "Still": 9961, "Squeaky": 9962, "Ġhummed": 9963, "Ġdedic": 9964, "Ġcourageous": 9965, "ĠMa": 9966, "ĠHor": 9967, "ĠDin": 9968, "Maddy": 9969, "Everything": 9970, "Curious": 9971, "Ġracers": 9972, "Ġpatients": 9973, "Ġmuster": 9974, "Ġgod": 9975, "Ġdeserves": 9976, "Ġaloud": 9977, "ĠThings": 9978, "aps": 9979, "Use": 9980, "ĠSquee": 9981, "ĠDragon": 9982, "Ġtours": 9983, "Ġmeets": 9984, "Ġmarvel": 9985, "ĠRusty": 9986, "ĠLiza": 9987, "ĠJet": 9988, "Froggy": 9989, "Ġwrapper": 9990, "ĠReddy": 9991, "ĠHops": 9992, "ĠCrusty": 9993, "Ġwhiskers": 9994, "Ġnicest": 9995, "Ġimproving": 9996, "Ġbooth": 9997, "ĠLand": 9998, "Surrender": 9999}